<unk>	0
<s>	0
</s>	0
<pad>	0
er	-0
en	-1
ch	-2
in	-3
▁a	-4
▁s	-5
▁t	-6
▁d	-7
▁w	-8
▁h	-9
nd	-10
ie	-11
▁th	-12
te	-13
es	-14
ich	-15
▁m	-16
it	-17
▁b	-18
▁the	-19
on	-20
is	-21
re	-22
ein	-23
▁n	-24
as	-25
▁u	-26
an	-27
▁f	-28
▁g	-29
ar	-30
ll	-31
ou	-32
at	-33
or	-34
ed	-35
▁o	-36
ing	-37
▁in	-38
▁l	-39
▁S	-40
▁and	-41
▁und	-42
el	-43
▁to	-44
▁v	-45
ig	-46
▁c	-47
▁die	-48
st	-49
▁i	-50
▁of	-51
▁z	-52
▁A	-53
▁ein	-54
le	-55
▁p	-56
em	-57
▁I	-58
om	-59
▁be	-60
▁ha	-61
he	-62
▁er	-63
ur	-64
et	-65
un	-66
hr	-67
ter	-68
ck	-69
au	-70
▁der	-71
▁k	-72
ir	-73
▁zu	-74
ten	-75
▁T	-76
▁G	-77
gen	-78
▁he	-79
▁no	-80
▁au	-81
al	-82
im	-83
id	-84
▁H	-85
icht	-86
▁M	-87
▁B	-88
ach	-89
▁sa	-90
▁»	-91
▁an	-92
▁was	-93
▁wh	-94
ber	-95
▁W	-96
▁E	-97
▁K	-98
ro	-99
▁sie	-100
▁e	-101
ge	-102
▁so	-103
ent	-104
ld	-105
▁da	-106
▁D	-107
▁her	-108
ut	-109
and	-110
lich	-111
se	-112
▁den	-113
am	-114
sch	-115
▁y	-116
▁is	-117
▁L	-118
▁that	-119
ow	-120
▁F	-121
▁nicht	-122
▁on	-123
▁it	-124
ce	-125
ere	-126
▁sich	-127
▁war	-128
ith	-129
▁ver	-130
▁re	-131
ly	-132
▁ih	-133
▁st	-134
de	-135
▁you	-136
▁his	-137
ve	-138
ben	-139
th	-140
ra	-141
▁"	-142
▁ge	-143
ei	-144
▁ich	-145
▁das	-146
▁with	-147
▁sein	-148
▁mit	-149
▁sch	-150
ess	-151
▁al	-152
▁j	-153
ung	-154
▁auf	-155
▁all	-156
ion	-157
ver	-158
▁r	-159
▁un	-160
der	-161
▁P	-162
den	-163
ür	-164
▁for	-165
ann	-166
ke	-167
▁as	-168
▁se	-169
▁had	-170
▁hat	-171
▁not	-172
▁'	-173
▁wie	-174
▁V	-175
ill	-176
ht	-177
▁es	-178
▁R	-179
ad	-180
▁him	-181
ne	-182
▁she	-183
▁me	-184
hen	-185
▁dem	-186
▁von	-187
us	-188
oo	-189
▁at	-190
▁daß	-191
all	-192
il	-193
ould	-194
chen	-195
be	-196
▁do	-197
gte	-198
▁Sch	-199
▁Sie	-200
ted	-201
end	-202
▁ist	-203
▁im	-204
um	-205
ind	-206
out	-207
▁fr	-208
▁N	-209
est	-210
▁ihr	-211
oll	-212
ay	-213
pp	-214
sen	-215
ft	-216
ol	-217
▁Z	-218
▁als	-219
ct	-220
uch	-221
▁hatte	-222
nen	-223
ain	-224
▁des	-225
▁ne	-226
men	-227
ff	-228
über	-229
ers	-230
ick	-231
▁St	-232
os	-233
hl	-234
▁eine	-235
▁we	-236
▁U	-237
ag	-238
sel	-239
▁le	-240
und	-241
.«	-242
▁ab	-243
▁sp	-244
▁sh	-245
▁said	-246
ul	-247
mer	-248
▁Er	-249
ier	-250
▁but	-251
▁J	-252
▁aus	-253
▁An	-254
qu	-255
▁have	-256
etz	-257
oug	-258
▁mo	-259
▁man	-260
ab	-261
ic	-262
▁–	-263
igen	-264
▁vor	-265
▁über	-266
ot	-267
ust	-268
▁ch	-269
ort	-270
▁C	-271
her	-272
▁The	-273
..	-274
▁li	-275
ern	-276
--	-277
ome	-278
▁con	-279
ight	-280
ück	-281
▁aber	-282
."	-283
▁Le	-284
bl	-285
ri	-286
▁um	-287
ant	-288
enn	-289
▁de	-290
▁O	-291
▁ihm	-292
rie	-293
▁nach	-294
urch	-295
che	-296
anz	-297
▁dies	-298
op	-299
itt	-300
▁my	-301
ang	-302
ell	-303
▁mein	-304
ew	-305
our	-306
▁by	-307
▁sagte	-308
▁ex	-309
▁which	-310
ist	-311
▁noch	-312
ther	-313
▁Au	-314
▁ihn	-315
ard	-316
hn	-317
ast	-318
▁from	-319
▁hin	-320
uß	-321
la	-322
▁He	-323
me	-324
sk	-325
▁up	-326
ien	-327
▁nur	-328
!«	-329
▁einen	-330
▁für	-331
▁mich	-332
fe	-333
ken	-334
▁one	-335
we	-336
iel	-337
ous	-338
▁who	-339
▁they	-340
▁mir	-341
self	-342
ön	-343
▁will	-344
▁or	-345
▁were	-346
fen	-347
lo	-348
▁this	-349
▁Th	-350
▁ar	-351
▁would	-352
na	-353
▁auch	-354
?«	-355
rau	-356
▁them	-357
▁wir	-358
ru	-359
ation	-360
▁wor	-361
ong	-362
zu	-363
▁Ver	-364
cht	-365
▁Ges	-366
▁gew	-367
ste	-368
ook	-369
▁du	-370
▁su	-371
▁wo	-372
▁am	-373
one	-374
▁beg	-375
▁ges	-376
ze	-377
ite	-378
ame	-379
ige	-380
red	-381
▁Die	-382
ör	-383
aus	-384
▁wer	-385
ate	-386
▁Ar	-387
▁ganz	-388
▁ihre	-389
art	-390
keit	-391
achte	-392
▁wieder	-393
▁ent	-394
▁go	-395
▁einem	-396
ood	-397
▁Ge	-398
▁Her	-399
▁lie	-400
▁there	-401
▁out	-402
ng	-403
▁bes	-404
ass	-405
▁ma	-406
ap	-407
«,	-408
▁durch	-409
ish	-410
ven	-411
ound	-412
ild	-413
▁wel	-414
?"	-415
▁qu	-416
▁dar	-417
lie	-418
▁Ich	-419
▁ro	-420
▁wenn	-421
▁what	-422
ahr	-423
elt	-424
etzt	-425
ungen	-426
▁kn	-427
▁kein	-428
rä	-429
acht	-430
▁when	-431
▁seine	-432
ät	-433
od	-434
▁zur	-435
▁doch	-436
ought	-437
,'	-438
▁gl	-439
ute	-440
rei	-441
ise	-442
,"	-443
▁are	-444
thing	-445
▁Augen	-446
ommen	-447
▁could	-448
!"	-449
▁been	-450
ice	-451
mal	-452
ßen	-453
row	-454
▁their	-455
▁fa	-456
ough	-457
ak	-458
onsk	-459
heit	-460
ren	-461
änd	-462
▁bei	-463
▁en	-464
▁did	-465
ure	-466
▁look	-467
bst	-468
▁about	-469
ide	-470
ack	-471
▁more	-472
.'	-473
wei	-474
▁ag	-475
ert	-476
▁Be	-477
▁tr	-478
▁br	-479
▁ste	-480
zen	-481
▁if	-482
▁habe	-483
ire	-484
▁woll	-485
▁your	-486
sam	-487
▁tim	-488
ond	-489
▁com	-490
ine	-491
▁any	-492
▁now	-493
ble	-494
ile	-495
▁hand	-496
▁Al	-497
pf	-498
eit	-499
ele	-500
och	-501
urn	-502
sten	-503
ved	-504
▁pr	-505
pt	-506
▁know	-507
ore	-508
jew	-509
▁einer	-510
way	-511
▁In	-512
▁lo	-513
▁sel	-514
▁ever	-515
▁She	-516
aft	-517
ity	-518
▁fe	-519
▁wei	-520
▁unter	-521
pe	-522
▁wä	-523
to	-524
age	-525
▁Und	-526
▁bl	-527
▁some	-528
▁kl	-529
ings	-530
lichen	-531
▁dann	-532
▁haben	-533
ud	-534
▁bef	-535
pr	-536
ause	-537
▁bet	-538
▁denn	-539
ischen	-540
bt	-541
▁fü	-542
▁Es	-543
▁jetzt	-544
tete	-545
wo	-546
▁then	-547
ary	-548
assen	-549
leich	-550
blick	-551
ked	-552
inn	-553
▁too	-554
▁only	-555
ry	-556
own	-557
▁And	-558
▁very	-559
ies	-560
ink	-561
▁like	-562
esen	-563
ah	-564
▁kön	-565
vin	-566
▁mehr	-567
per	-568
nte	-569
▁Der	-570
▁pro	-571
▁It	-572
▁Aber	-573
▁diese	-574
ally	-575
är	-576
ges	-577
lex	-578
br	-579
isch	-580
cc	-581
hal	-582
ive	-583
▁over	-584
Ich	-585
nt	-586
hat	-587
▁himself	-588
▁thought	-589
ange	-590
▁time	-591
ving	-592
▁seiner	-593
▁Mr	-594
▁get	-595
angen	-596
lle	-597
ank	-598
▁et	-599
▁dieser	-600
fter	-601
ster	-602
▁Ein	-603
fü	-604
ath	-605
hne	-606
▁waren	-607
▁Un	-608
▁say	-609
▁ob	-610
ronsk	-611
äch	-612
liche	-613
▁oder	-614
los	-615
able	-616
▁ger	-617
▁again	-618
▁into	-619
gt	-620
▁sehr	-621
▁selbst	-622
ac	-623
wer	-624
▁Re	-625
▁see	-626
▁uns	-627
was	-628
▁But	-629
▁Anna	-630
▁dis	-631
stand	-632
▁long	-633
ance	-634
bar	-635
▁Gr	-636
▁ad	-637
...	-638
▁nie	-639
▁Alex	-640
ue	-641
eine	-642
if	-643
,«	-644
▁immer	-645
▁sei	-646
immer	-647
auf	-648
tes	-649
ider	-650
▁hät	-651
▁every	-652
▁schon	-653
▁fl	-654
iß	-655
▁wür	-656
▁even	-657
schaft	-658
You	-659
▁muß	-660
▁off	-661
ated	-662
▁Das	-663
▁zum	-664
▁kann	-665
▁than	-666
?'	-667
ger	-668
ief	-669
▁ho	-670
▁pl	-671
▁ey	-672
▁po	-673
essen	-674
▁werden	-675
▁,	-676
orn	-677
▁sind	-678
▁Levin	-679
▁under	-680
▁nichts	-681
▁Ih	-682
▁sah	-683
▁Frau	-684
▁alles	-685
ade	-686
igkeit	-687
▁Ste	-688
▁wur	-689
jewin	-690
▁Zeit	-691
▁other	-692
▁Ljewin	-693
!'	-694
ug	-695
▁sm	-696
▁Vor	-697
▁down	-698
imm	-699
▁hal	-700
▁Hand	-701
achen	-702
itsch	-703
nis	-704
▁can	-705
ho	-706
▁Bl	-707
▁ohne	-708
▁should	-709
▁pe	-710
▁gen	-711
▁seinem	-712
og	-713
▁gr	-714
▁ja	-715
ious	-716
ittle	-717
schen	-718
are	-719
▁bec	-720
▁how	-721
▁still	-722
▁soll	-723
mit	-724
▁,,	-725
▁kon	-726
tz	-727
▁Em	-728
eren	-729
▁Tom	-730
▁its	-731
▁seinen	-732
air	-733
ree	-734
tel	-735
▁fort	-736
▁hier	-737
▁little	-738
aß	-739
ose	-740
▁gro	-741
ts	-742
▁wen	-743
▁rem	-744
eln	-745
erk	-746
▁co	-747
iger	-748
▁bo	-749
▁day	-750
▁jed	-751
▁etwas	-752
ried	-753
▁has	-754
▁went	-755
tet	-756
▁dr	-757
▁just	-758
kommen	-759
▁We	-760
▁hätte	-761
hing	-762
▁us	-763
dem	-764
▁em	-765
▁fra	-766
hrend	-767
▁alle	-768
▁fu	-769
▁gre	-770
▁way	-771
▁zurück	-772
wn	-773
ars	-774
▁So	-775
iden	-776
▁app	-777
▁after	-778
▁welche	-779
iter	-780
itty	-781
▁seem	-782
▁good	-783
▁ihrer	-784
iss	-785
ness	-786
ester	-787
ep	-788
pl	-789
wor	-790
▁meine	-791
▁konnte	-792
▁Augenblick	-793
ied	-794
▁gar	-795
cher	-796
▁made	-797
pen	-798
war	-799
▁ging	-800
▁turn	-801
▁Kitty	-802
ün	-803
ions	-804
▁also	-805
▁ra	-806
ache	-807
▁fir	-808
▁stand	-809
▁Aus	-810
▁ta	-811
ater	-812
leas	-813
▁two	-814
ents	-815
omet	-816
▁Fre	-817
▁back	-818
fl	-819
ese	-820
▁Men	-821
ma	-822
▁la	-823
ward	-824
▁res	-825
▁eyes	-826
ald	-827
▁bis	-828
▁such	-829
▁eines	-830
gel	-831
▁kam	-832
▁per	-833
ful	-834
▁Ch	-835
▁wollte	-836
ci	-837
▁Ihr	-838
▁wurde	-839
▁bin	-840
gend	-841
▁rep	-842
▁thr	-843
glich	-844
ave	-845
einen	-846
▁come	-847
▁zwei	-848
ty	-849
▁sagen	-850
▁würde	-851
▁before	-852
igh	-853
▁ir	-854
▁bre	-855
iv	-856
ps	-857
tern	-858
▁pre	-859
▁Leben	-860
alt	-861
▁Sp	-862
▁Kar	-863
bei	-864
▁mö	-865
▁ins	-866
▁jen	-867
▁cont	-868
▁pass	-869
▁without	-870
äu	-871
▁vers	-872
▁wohl	-873
▁Herr	-874
▁much	-875
▁word	-876
aten	-877
▁spe	-878
▁Mann	-879
ady	-880
uck	-881
chte	-882
ible	-883
▁lau	-884
än	-885
▁gegen	-886
▁bed	-887
▁don	-888
▁felt	-889
▁somet	-890
anc	-891
eing	-892
king	-893
▁must	-894
▁wird	-895
ße	-896
äl	-897
▁Jo	-898
▁came	-899
▁never	-900
▁ihren	-901
▁think	-902
hör	-903
▁tra	-904
ingen	-905
iff	-906
oss	-907
▁fre	-908
▁nun	-909
▁door	-910
▁end	-911
▁head	-912
▁keine	-913
▁where	-914
▁looked	-915
▁›	-916
ons	-917
▁Mit	-918
▁werde	-919
ord	-920
▁mom	-921
issen	-922
ister	-923
▁face	-924
▁first	-925
▁gleich	-926
üt	-927
▁Ged	-928
▁beh	-929
▁sol	-930
▁Gesicht	-931
hren	-932
äng	-933
▁sc	-934
ather	-935
▁dich	-936
eil	-937
lau	-938
▁away	-939
▁ihrem	-940
ov	-941
ely	-942
▁Se	-943
▁inter	-944
ahren	-945
ander	-946
etzte	-947
kt	-948
anken	-949
▁cons	-950
▁viel	-951
uh	-952
▁spr	-953
▁well	-954
▁fragte	-955
▁voll	-956
äd	-957
get	-958
reg	-959
▁--	-960
fall	-961
▁let	-962
▁nothing	-963
arm	-964
▁imp	-965
▁diesem	-966
isten	-967
sicht	-968
▁best	-969
▁these	-970
ves	-971
▁Fr	-972
unden	-973
▁weiß	-974
▁ihnen	-975
ss	-976
▁(	-977
▁cl	-978
▁wa	-979
▁Bes	-980
▁Bet	-981
cken	-982
▁room	-983
▁können	-984
▁ke	-985
▁fin	-986
▁moment	-987
▁gewesen	-988
ily	-989
ost	-990
ches	-991
hlte	-992
▁ant	-993
▁dre	-994
▁old	-995
▁vie	-996
▁seemed	-997
▁comp	-998
iz	-999
Yes	-1000
omm	-1001
▁Par	-1002
▁child	-1003
▁einmal	-1004
▁versch	-1005
af	-1006
ase	-1007
its	-1008
unde	-1009
▁wom	-1010
▁through	-1011
eld	-1012
ner	-1013
▁mü	-1014
hmen	-1015
ment	-1016
▁upon	-1017
▁asked	-1018
▁während	-1019
▁Q	-1020
led	-1021
▁...	-1022
▁Auf	-1023
atter	-1024
ische	-1025
▁pleas	-1026
▁Wronsk	-1027
▁bro	-1028
▁began	-1029
▁gesch	-1030
▁something	-1031
ian	-1032
owed	-1033
ppen	-1034
ruck	-1035
▁acc	-1036
utter	-1037
▁here	-1038
ect	-1039
les	-1040
ting	-1041
▁Als	-1042
▁arm	-1043
ign	-1044
▁car	-1045
▁kne	-1046
inder	-1047
halten	-1048
▁wenig	-1049
▁gerade	-1050
▁feel	-1051
▁Ihnen	-1052
ielt	-1053
▁Lie	-1054
ished	-1055
▁sehen	-1056
eu	-1057
ffen	-1058
▁hör	-1059
ständ	-1060
▁Pf	-1061
cess	-1062
cted	-1063
▁gel	-1064
▁pla	-1065
▁wind	-1066
man	-1067
▁zw	-1068
▁ans	-1069
▁gem	-1070
▁saw	-1071
▁str	-1072
▁because	-1073
ys	-1074
Oh	-1075
igt	-1076
rit	-1077
▁Ab	-1078
▁You	-1079
geben	-1080
▁Schw	-1081
▁dachte	-1082
▁machte	-1083
ott	-1084
ßer	-1085
▁Kop	-1086
▁dir	-1087
other	-1088
▁sond	-1089
▁took	-1090
ared	-1091
▁bel	-1092
▁Emma	-1093
▁cour	-1094
▁wäre	-1095
▁those	-1096
lichkeit	-1097
▁Alexand	-1098
vor	-1099
▁Ad	-1100
ouse	-1101
aster	-1102
▁love	-1103
▁same	-1104
igte	-1105
▁schw	-1106
ont	-1107
hlen	-1108
▁own	-1109
ronsky	-1110
▁being	-1111
▁hatten	-1112
vo	-1113
ane	-1114
ced	-1115
▁Pr	-1116
aint	-1117
ogen	-1118
olly	-1119
▁once	-1120
▁zusam	-1121
▁lassen	-1122
ob	-1123
ople	-1124
▁eben	-1125
▁life	-1126
▁verl	-1127
▁Vronsky	-1128
lei	-1129
▁Qu	-1130
agen	-1131
▁verg	-1132
▁Zimmer	-1133
▁begann	-1134
▁dieses	-1135
▁Fl	-1136
▁Gl	-1137
ince	-1138
ways	-1139
▁ser	-1140
▁tal	-1141
kl	-1142
ret	-1143
ount	-1144
▁gef	-1145
vers	-1146
▁tre	-1147
▁Blick	-1148
▁herself	-1149
▁Nach	-1150
▁make	-1151
licher	-1152
▁Wronski	-1153
nde	-1154
orte	-1155
▁Ent	-1156
▁lang	-1157
▁tell	-1158
▁always	-1159
▁people	-1160
▁men	-1161
▁dist	-1162
▁last	-1163
for	-1164
▁Pl	-1165
llen	-1166
▁right	-1167
▁antwor	-1168
▁zusammen	-1169
elte	-1170
onst	-1171
pped	-1172
▁gut	-1173
▁while	-1174
▁weiter	-1175
mals	-1176
itz	-1177
▁erw	-1178
▁new	-1179
▁open	-1180
▁aller	-1181
▁heard	-1182
▁quite	-1183
Ja	-1184
enk	-1185
ained	-1186
▁star	-1187
av	-1188
inu	-1189
bend	-1190
▁rec	-1191
▁sat	-1192
▁vom	-1193
▁ließ	-1194
▁rief	-1195
rechen	-1196
▁great	-1197
▁might	-1198
▁te	-1199
ence	-1200
▁Ger	-1201
▁Wie	-1202
▁neu	-1203
▁besch	-1204
▁vo	-1205
▁ret	-1206
ickte	-1207
▁Stim	-1208
▁round	-1209
▁diesen	-1210
▁gi	-1211
▁Wir	-1212
▁nah	-1213
▁ersch	-1214
▁Alexandrow	-1215
so	-1216
agt	-1217
von	-1218
▁sl	-1219
▁far	-1220
▁Then	-1221
hm	-1222
ull	-1223
▁ze	-1224
▁mar	-1225
ichen	-1226
orgen	-1227
▁call	-1228
▁part	-1229
▁Gesch	-1230
−−	-1231
als	-1232
bte	-1233
▁Für	-1234
▁glau	-1235
▁weil	-1236
▁Alice	-1237
▁shall	-1238
▁Wo	-1239
teil	-1240
▁hor	-1241
aking	-1242
ichte	-1243
▁That	-1244
▁_	-1245
unk	-1246
▁Pro	-1247
ently	-1248
▁left	-1249
▁Unter	-1250
dr	-1251
What	-1252
▁sil	-1253
▁lange	-1254
ush	-1255
ehen	-1256
▁Man	-1257
▁Roch	-1258
▁find	-1259
ädchen	-1260
▁There	-1261
▁found	-1262
entlich	-1263
▁better	-1264
▁having	-1265
▁another	-1266
▁Rochester	-1267
aar	-1268
ene	-1269
the	-1270
▁bit	-1271
press	-1272
▁They	-1273
▁hast	-1274
uld	-1275
ined	-1276
iten	-1277
ungs	-1278
▁put	-1279
ph	-1280
ock	-1281
▁el	-1282
amen	-1283
▁clo	-1284
▁damit	-1285
▁night	-1286
▁machen	-1287
ody	-1288
voll	-1289
▁fuhr	-1290
blonsk	-1291
ded	-1292
ict	-1293
ult	-1294
erte	-1295
▁Was	-1296
▁eigen	-1297
▁words	-1298
▁young	-1299
▁answer	-1300
▁Menschen	-1301
ale	-1302
ife	-1303
▁dra	-1304
▁nahm	-1305
ations	-1306
▁Oblonsk	-1307
▁sondern	-1308
ip	-1309
▁our	-1310
▁drei	-1311
▁knew	-1312
▁take	-1313
▁heart	-1314
▁Stimme	-1315
▁Um	-1316
fort	-1317
▁Hau	-1318
▁want	-1319
▁irgend	-1320
aum	-1321
iness	-1322
▁gest	-1323
▁work	-1324
▁going	-1325
▁andere	-1326
ler	-1327
ppe	-1328
kann	-1329
▁bem	-1330
att	-1331
▁Br	-1332
sche	-1333
▁Tür	-1334
ragen	-1335
▁recht	-1336
▁three	-1337
lleicht	-1338
▁anything	-1339
▁antwortete	-1340
▁understand	-1341
gh	-1342
öhn	-1343
enin	-1344
lied	-1345
▁poin	-1346
▁davon	-1347
▁voice	-1348
▁window	-1349
▁Karenin	-1350
ER	-1351
up	-1352
irl	-1353
ched	-1354
ingo	-1355
▁cle	-1356
▁yet	-1357
regor	-1358
▁poss	-1359
▁schl	-1360
▁Dolly	-1361
▁At	-1362
ition	-1363
▁Schl	-1364
▁Gregor	-1365
▁fühlte	-1366
▁Gedanken	-1367
fte	-1368
ged	-1369
▁hands	-1370
▁house	-1371
▁turned	-1372
ik	-1373
Sie	-1374
ces	-1375
hrt	-1376
pan	-1377
▁gu	-1378
here	-1379
▁Gew	-1380
erson	-1381
ingoire	-1382
▁Mutter	-1383
▁schien	-1384
▁things	-1385
▁Gringoire	-1386
atz	-1387
iend	-1388
ille	-1389
tent	-1390
▁All	-1391
▁Mrs	-1392
ither	-1393
▁fell	-1394
▁enter	-1395
▁hielt	-1396
▁Mädchen	-1397
Das	-1398
aut	-1399
hin	-1400
öff	-1401
ever	-1402
▁Kopf	-1403
▁erst	-1404
▁foll	-1405
▁hinter	-1406
▁mother	-1407
▁Ü	-1408
gar	-1409
isen	-1410
▁Ark	-1411
▁Fen	-1412
▁Tag	-1413
▁Dann	-1414
▁einz	-1415
▁wahr	-1416
▁gehen	-1417
▁sollte	-1418
gr	-1419
ory	-1420
ser	-1421
nete	-1422
▁Herz	-1423
▁light	-1424
▁mußte	-1425
az	-1426
fa	-1427
ötz	-1428
hrte	-1429
leid	-1430
pect	-1431
reck	-1432
▁müs	-1433
▁Arbe	-1434
▁When	-1435
▁allen	-1436
▁Kinder	-1437
▁besond	-1438
▁friend	-1439
▁toward	-1440
▁wollen	-1441
▁frü	-1442
▁tro	-1443
▁wuß	-1444
esser	-1445
▁diff	-1446
▁girl	-1447
▁Worte	-1448
ia	-1449
sp	-1450
iet	-1451
net	-1452
urm	-1453
▁got	-1454
▁reg	-1455
igung	-1456
unter	-1457
▁Wenn	-1458
▁dort	-1459
No	-1460
geg	-1461
tem	-1462
▁Hö	-1463
▁Kl	-1464
▁On	-1465
ield	-1466
▁Pet	-1467
▁geh	-1468
▁gra	-1469
▁mind	-1470
▁side	-1471
gleich	-1472
▁Paris	-1473
▁thing	-1474
▁ganzen	-1475
▁keinen	-1476
▁meiner	-1477
▁kleinen	-1478
▁everything	-1479
ix	-1480
fel	-1481
oun	-1482
▁may	-1483
klich	-1484
▁Ihre	-1485
▁bere	-1486
▁läch	-1487
▁kommen	-1488
äm	-1489
bes	-1490
▁ac	-1491
▁ye	-1492
nung	-1493
ween	-1494
▁Ant	-1495
▁ear	-1496
▁This	-1497
▁near	-1498
▁seen	-1499
▁Hause	-1500
▁dabei	-1501
▁woman	-1502
llt	-1503
▁Me	-1504
ired	-1505
▁Bau	-1506
▁Ser	-1507
▁hel	-1508
▁law	-1509
ating	-1510
▁Huck	-1511
▁stra	-1512
▁ganze	-1513
▁Alexei	-1514
▁anderen	-1515
It	-1516
äß	-1517
fle	-1518
med	-1519
erin	-1520
▁Art	-1521
anden	-1522
essed	-1523
gesch	-1524
schein	-1525
▁Nacht	-1526
atur	-1527
▁cur	-1528
▁whe	-1529
chten	-1530
ction	-1531
under	-1532
zimmer	-1533
▁between	-1534
▁replied	-1535
▁jo	-1536
ücken	-1537
▁Haus	-1538
▁What	-1539
ichter	-1540
▁wußte	-1541
▁allein	-1542
▁gesagt	-1543
▁Fenster	-1544
▁welcher	-1545
hy	-1546
▁-	-1547
ahl	-1548
ais	-1549
hle	-1550
odo	-1551
ude	-1552
ßte	-1553
▁..	-1554
less	-1555
▁Kön	-1556
adjew	-1557
gehen	-1558
sehen	-1559
▁place	-1560
▁Arkadjew	-1561
▁Oblonsky	-1562
▁zwischen	-1563
Es	-1564
ail	-1565
ple	-1566
▁Or	-1567
ucht	-1568
ächt	-1569
▁Land	-1570
▁ange	-1571
▁bald	-1572
▁fast	-1573
▁full	-1574
▁hard	-1575
▁wife	-1576
▁continu	-1577
Was	-1578
amm	-1579
cke	-1580
asim	-1581
gest	-1582
▁ruh	-1583
inger	-1584
▁...«	-1585
▁Jane	-1586
▁Stra	-1587
▁fall	-1588
▁wish	-1589
▁quest	-1590
▁meinen	-1591
▁though	-1592
▁Alexandrowitsch	-1593
els	-1594
ason	-1595
anted	-1596
▁Händ	-1597
▁each	-1598
▁order	-1599
asimodo	-1600
▁against	-1601
▁blickte	-1602
▁looking	-1603
gl	-1604
ha	-1605
ctor	-1606
fühl	-1607
wand	-1608
ying	-1609
▁bla	-1610
▁sur	-1611
▁tru	-1612
▁zer	-1613
inner	-1614
▁give	-1615
▁many	-1616
▁soon	-1617
▁vielleicht	-1618
bed	-1619
ope	-1620
zie	-1621
äft	-1622
Nein	-1623
▁Wei	-1624
▁fol	-1625
▁ind	-1626
▁lag	-1627
ached	-1628
▁empf	-1629
▁half	-1630
▁mean	-1631
ertain	-1632
rochen	-1633
▁alone	-1634
gs	-1635
ens	-1636
▁Ru	-1637
Aber	-1638
ised	-1639
llte	-1640
most	-1641
▁Kir	-1642
▁gab	-1643
▁tri	-1644
▁weg	-1645
▁blie	-1646
ichten	-1647
orning	-1648
▁hörte	-1649
▁whole	-1650
ötzlich	-1651
▁großen	-1652
▁Quasimodo	-1653
The	-1654
gem	-1655
hil	-1656
eder	-1657
▁tun	-1658
ember	-1659
▁Char	-1660
▁Kind	-1661
▁Wort	-1662
▁appe	-1663
▁whom	-1664
ib	-1665
ält	-1666
▁Du	-1667
iges	-1668
rown	-1669
▁del	-1670
▁both	-1671
▁most	-1672
achten	-1673
fahren	-1674
▁gewor	-1675
▁indem	-1676
fer	-1677
hol	-1678
ngl	-1679
ool	-1680
Well	-1681
asch	-1682
haft	-1683
ower	-1684
entle	-1685
ieren	-1686
▁fest	-1687
▁gehör	-1688
▁darauf	-1689
▁morning	-1690
bo	-1691
fä	-1692
ja	-1693
üb	-1694
tre	-1695
▁Kr	-1696
eite	-1697
▁exc	-1698
▁arch	-1699
▁read	-1700
▁Liebe	-1701
▁belie	-1702
▁daran	-1703
▁andern	-1704
ove	-1705
▁Ne	-1706
ließ	-1707
schl	-1708
▁dec	-1709
▁occ	-1710
▁set	-1711
▁ter	-1712
druck	-1713
▁Bild	-1714
▁John	-1715
▁schle	-1716
▁beiden	-1717
▁darüber	-1718
zä	-1719
fin	-1720
oul	-1721
wir	-1722
ünd	-1723
mand	-1724
▁att	-1725
▁eig	-1726
▁wal	-1727
inter	-1728
▁beim	-1729
▁suff	-1730
▁Über	-1731
▁smile	-1732
▁stood	-1733
▁return	-1734
▁seines	-1735
▁stehen	-1736
▁verste	-1737
Nun	-1738
ash	-1739
fol	-1740
elle	-1741
inge	-1742
▁nor	-1743
▁gave	-1744
▁keep	-1745
▁weit	-1746
▁Stepan	-1747
▁ersten	-1748
▁listen	-1749
aps	-1750
aun	-1751
dden	-1752
ject	-1753
▁Not	-1754
▁War	-1755
▁sit	-1756
itter	-1757
▁done	-1758
▁hour	-1759
▁komm	-1760
iderte	-1761
▁Gegen	-1762
▁offen	-1763
▁gemacht	-1764
▁welches	-1765
▁consider	-1766
▁erwiderte	-1767
▁Arkadjewitsch	-1768
And	-1769
▁Da	-1770
▁hö	-1771
rage	-1772
▁dou	-1773
▁sec	-1774
ieden	-1775
▁Gott	-1776
▁happ	-1777
▁home	-1778
▁Fürst	-1779
▁gentle	-1780
▁express	-1781
▁gesehen	-1782
lt	-1783
nü	-1784
zt	-1785
▁No	-1786
band	-1787
mann	-1788
▁ill	-1789
▁mer	-1790
ready	-1791
urcht	-1792
▁Welt	-1793
▁does	-1794
▁Abend	-1795
▁außer	-1796
▁schön	-1797
▁wanted	-1798
HA	-1799
du	-1800
xt	-1801
oud	-1802
▁As	-1803
halb	-1804
▁Bew	-1805
▁adv	-1806
▁aff	-1807
▁hum	-1808
ender	-1809
▁Ende	-1810
▁Tage	-1811
▁pres	-1812
▁told	-1813
▁trat	-1814
▁Weise	-1815
▁heraus	-1816
▁longer	-1817
▁myself	-1818
▁wissen	-1819
▁worden	-1820
▁geworden	-1821
▁wirklich	-1822
day	-1823
res	-1824
▁ru	-1825
▁Fuß	-1826
▁Mar	-1827
▁geb	-1828
▁pra	-1829
▁Bett	-1830
▁Dien	-1831
▁verm	-1832
selves	-1833
▁schne	-1834
▁sogar	-1835
▁called	-1836
▁setzte	-1837
▁already	-1838
▁children	-1839
ee	-1840
üm	-1841
ors	-1842
auer	-1843
riff	-1844
▁few	-1845
▁sir	-1846
erkte	-1847
gegen	-1848
ruder	-1849
▁clos	-1850
▁dein	-1851
▁need	-1852
gether	-1853
lossen	-1854
▁behind	-1855
▁sprach	-1856
.,	-1857
wa	-1858
But	-1859
TER	-1860
oot	-1861
prä	-1862
yer	-1863
ular	-1864
▁For	-1865
▁His	-1866
▁Mad	-1867
▁dep	-1868
▁cann	-1869
▁conf	-1870
▁dazu	-1871
▁hold	-1872
▁König	-1873
▁course	-1874
▁meinem	-1875
▁certain	-1876
ks	-1877
geb	-1878
ker	-1879
▁Am	-1880
▁Bo	-1881
▁ev	-1882
anke	-1883
ross	-1884
▁lar	-1885
▁rel	-1886
▁vis	-1887
▁blei	-1888
▁fand	-1889
▁rose	-1890
▁Saint	-1891
▁Seite	-1892
▁master	-1893
▁sudden	-1894
of	-1895
spr	-1896
acon	-1897
rief	-1898
▁Bov	-1899
▁ber	-1900
▁bus	-1901
▁eff	-1902
▁hus	-1903
▁mon	-1904
▁sto	-1905
▁why	-1906
innen	-1907
thers	-1908
zogen	-1909
▁Prin	-1910
▁inst	-1911
▁Seine	-1912
▁blieb	-1913
▁Bovary	-1914
▁almost	-1915
▁dessen	-1916
▁matter	-1917
▁brother	-1918
▁niemals	-1919
ellschaft	-1920
zte	-1921
eres	-1922
gung	-1923
▁ass	-1924
▁dro	-1925
▁fam	-1926
▁inc	-1927
▁inv	-1928
etzen	-1929
▁poor	-1930
selben	-1931
Und	-1932
▁Zu	-1933
wohl	-1934
wort	-1935
▁Kam	-1936
▁cap	-1937
▁mag	-1938
▁sim	-1939
▁spo	-1940
ately	-1941
ement	-1942
▁stre	-1943
▁speak	-1944
▁Bruder	-1945
▁besser	-1946
▁enough	-1947
▁whether	-1948
ial	-1949
ses	-1950
wan	-1951
▁To	-1952
llig	-1953
unge	-1954
▁ide	-1955
▁run	-1956
▁disc	-1957
▁help	-1958
▁kind	-1959
▁supp	-1960
▁cannot	-1961
▁möglich	-1962
▁sprechen	-1963
,−−	-1964
HAP	-1965
ets	-1966
ins	-1967
sky	-1968
▁Tr	-1969
▁Geb	-1970
▁ged	-1971
riest	-1972
▁care	-1973
▁gone	-1974
▁hear	-1975
▁unge	-1976
▁wand	-1977
▁since	-1978
▁stren	-1979
▁kleine	-1980
▁schwar	-1981
▁question	-1982
no	-1983
tr	-1984
▁1	-1985
▁ä	-1986
umm	-1987
▁tw	-1988
ides	-1989
room	-1990
ully	-1991
▁Mos	-1992
▁kur	-1993
▁öff	-1994
laude	-1995
owing	-1996
▁CHAP	-1997
▁betr	-1998
▁fine	-1999
▁less	-2000
cially	-2001
elegen	-2002
▁ihres	-2003
▁Claude	-2004
▁früher	-2005
▁CHAPTER	-2006
▁husband	-2007
▁Wä	-2008
ieur	-2009
tend	-2010
ures	-2011
▁Son	-2012
▁par	-2013
▁sor	-2014
▁wat	-2015
chter	-2016
fully	-2017
▁sort	-2018
▁verd	-2019
bracht	-2020
▁Leute	-2021
▁Sache	-2022
▁black	-2023
▁count	-2024
▁water	-2025
▁einige	-2026
▁passed	-2027
▁sister	-2028
▁Im	-2029
ahre	-2030
iser	-2031
unst	-2032
▁sub	-2033
ghter	-2034
▁Iwan	-2035
▁Karl	-2036
▁cold	-2037
öglich	-2038
▁hinzu	-2039
▁continued	-2040
eh	-2041
ym	-2042
äh	-2043
▁ü	-2044
ace	-2045
erd	-2046
loß	-2047
▁De	-2048
leep	-2049
ured	-2050
utes	-2051
▁How	-2052
▁hur	-2053
▁fing	-2054
▁forg	-2055
▁rest	-2056
▁tief	-2057
fallen	-2058
▁Seele	-2059
▁along	-2060
▁appro	-2061
▁clear	-2062
▁glück	-2063
▁klein	-2064
▁world	-2065
▁Morgen	-2066
▁hervor	-2067
▁hinaus	-2068
▁müssen	-2069
▁nieder	-2070
▁priest	-2071
▁schwer	-2072
▁brought	-2073
▁Ausdruck	-2074
▁possible	-2075
▁plötzlich	-2076
öt	-2077
ats	-2078
wür	-2079
That	-2080
elnd	-2081
raft	-2082
▁Miß	-2083
▁cal	-2084
▁jud	-2085
▁min	-2086
▁nat	-2087
▁unc	-2088
▁pain	-2089
▁vier	-2090
▁wall	-2091
▁front	-2092
▁Arbeit	-2093
▁könnte	-2094
▁feeling	-2095
▁gekommen	-2096
▁suddenly	-2097
▁themselves	-2098
li	-2099
uf	-2100
zw	-2101
öl	-2102
▁Y	-2103
bus	-2104
ows	-2105
ual	-2106
ump	-2107
...'	-2108
cept	-2109
ften	-2110
over	-2111
will	-2112
▁Dar	-2113
▁God	-2114
▁dire	-2115
▁soul	-2116
ürlich	-2117
▁Herrn	-2118
▁Vater	-2119
▁heute	-2120
▁table	-2121
▁together	-2122
mut	-2123
old	-2124
▁Lu	-2125
ably	-2126
erer	-2127
ical	-2128
oren	-2129
urst	-2130
wing	-2131
▁air	-2132
▁flo	-2133
llung	-2134
uring	-2135
▁cond	-2136
▁serv	-2137
▁Serge	-2138
▁jener	-2139
▁sound	-2140
onsieur	-2141
▁Gesprä	-2142
▁Herren	-2143
▁ebenso	-2144
sh	-2145
bel	-2146
bre	-2147
gth	-2148
wär	-2149
▁sk	-2150
airs	-2151
ered	-2152
ging	-2153
haps	-2154
ided	-2155
rock	-2156
▁art	-2157
▁wün	-2158
enden	-2159
stens	-2160
uchen	-2161
weise	-2162
▁Empf	-2163
▁Miss	-2164
▁expl	-2165
▁smil	-2166
▁wait	-2167
▁Diese	-2168
▁Glück	-2169
▁große	-2170
▁leave	-2171
▁point	-2172
▁small	-2173
▁tried	-2174
onstant	-2175
▁Iwanow	-2176
▁remember	-2177
▁besonders	-2178
▁Gesellschaft	-2179
adt	-2180
ckt	-2181
hre	-2182
▁Ho	-2183
body	-2184
ckte	-2185
ited	-2186
▁Gem	-2187
▁act	-2188
▁ang	-2189
▁mal	-2190
anged	-2191
atten	-2192
ienen	-2193
reich	-2194
▁bist	-2195
▁real	-2196
▁seit	-2197
▁Jetzt	-2198
▁Wagen	-2199
▁white	-2200
▁others	-2201
▁saying	-2202
pecially	-2203
nf	-2204
‹,	-2205
ieg	-2206
une	-2207
▁ed	-2208
enka	-2209
ient	-2210
▁Fle	-2211
ching	-2212
▁hair	-2213
▁till	-2214
undert	-2215
▁daher	-2216
▁Sergei	-2217
▁father	-2218
▁gewöhn	-2219
▁Schwester	-2220
ird	-2221
urs	-2222
zus	-2223
▁Ko	-2224
▁cr	-2225
▁je	-2226
asse	-2227
ling	-2228
zeit	-2229
▁zog	-2230
aufen	-2231
▁Euch	-2232
▁Läch	-2233
▁bene	-2234
▁book	-2235
▁char	-2236
▁einf	-2237
▁else	-2238
▁king	-2239
▁meet	-2240
▁stud	-2241
▁taken	-2242
▁whose	-2243
▁Gefühl	-2244
▁Charles	-2245
▁answered	-2246
ans	-2247
▁bu	-2248
ctly	-2249
fern	-2250
▁lad	-2251
ittag	-2252
▁Höhe	-2253
▁sent	-2254
▁Haupt	-2255
▁Schul	-2256
▁added	-2257
▁quick	-2258
▁ruhig	-2259
▁Herzen	-2260
▁gehört	-2261
▁happen	-2262
▁necess	-2263
▁wandte	-2264
▁Antwort	-2265
▁Gericht	-2266
▁evening	-2267
Ach	-2268
How	-2269
für	-2270
hte	-2271
ants	-2272
umen	-2273
▁Gra	-2274
▁Kre	-2275
▁dau	-2276
▁ern	-2277
▁oft	-2278
lagen	-2279
schte	-2280
▁Verg	-2281
▁fiel	-2282
▁kaum	-2283
▁live	-2284
▁Frage	-2285
▁alten	-2286
▁denen	-2287
▁geben	-2288
▁large	-2289
▁Frauen	-2290
▁Freund	-2291
▁finden	-2292
ette	-2293
land	-2294
äher	-2295
▁low	-2296
▁mid	-2297
ushed	-2298
▁Mary	-2299
▁Vers	-2300
▁days	-2301
▁name	-2302
▁repe	-2303
brigen	-2304
etzten	-2305
indung	-2306
liches	-2307
▁above	-2308
▁jeden	-2309
▁jeder	-2310
▁least	-2311
▁neben	-2312
▁Lebens	-2313
▁nehmen	-2314
▁Lächeln	-2315
▁niemand	-2316
▁schnell	-2317
▁Augenblicke	-2318
ahn	-2319
cei	-2320
ages	-2321
ante	-2322
ennt	-2323
immt	-2324
wend	-2325
▁Ang	-2326
▁Hom	-2327
▁Now	-2328
▁Pap	-2329
▁Sir	-2330
▁hab	-2331
▁lay	-2332
▁ran	-2333
▁Buch	-2334
▁dark	-2335
▁gehe	-2336
▁gern	-2337
▁next	-2338
▁talk	-2339
▁denken	-2340
▁followed	-2341
),	-2342
Du	-2343
hö	-2344
wh	-2345
ahe	-2346
arr	-2347
but	-2348
uss	-2349
blie	-2350
dern	-2351
hnte	-2352
used	-2353
▁Stu	-2354
▁jem	-2355
▁red	-2356
anger	-2357
arten	-2358
rible	-2359
ummer	-2360
▁Zwei	-2361
▁fünf	-2362
▁hope	-2363
▁Geist	-2364
▁Platz	-2365
▁kommt	-2366
▁church	-2367
▁doctor	-2368
einander	-2369
▁bleiben	-2370
ex	-2371
ka	-2372
sa	-2373
ilt	-2374
kam	-2375
let	-2376
vok	-2377
▁El	-2378
erst	-2379
ific	-2380
▁Mal	-2381
▁gek	-2382
asser	-2383
ivers	-2384
ückte	-2385
▁brau	-2386
▁desp	-2387
▁foot	-2388
▁high	-2389
▁sure	-2390
▁wild	-2391
heiten	-2392
iously	-2393
rieden	-2394
▁Jahre	-2395
▁among	-2396
▁doubt	-2397
▁herum	-2398
▁women	-2399
samkeit	-2400
▁person	-2401
▁really	-2402
▁würden	-2403
▁stopped	-2404
▁business	-2405
▁especially	-2406
by	-2407
Wie	-2408
irc	-2409
ram	-2410
rän	-2411
iver	-2412
ning	-2413
tain	-2414
▁Kat	-2415
▁Uhr	-2416
▁eas	-2417
▁ken	-2418
ising	-2419
▁alte	-2420
▁conc	-2421
▁erre	-2422
▁feet	-2423
▁stay	-2424
itting	-2425
rieben	-2426
▁Advok	-2427
▁Namen	-2428
▁allem	-2429
▁years	-2430
tschaft	-2431
▁Stunde	-2432
▁import	-2433
▁möchte	-2434
▁rather	-2435
▁entered	-2436
▁appeared	-2437
▁gegenüber	-2438
Ah	-2439
aßt	-2440
haf	-2441
uth	-2442
form	-2443
gten	-2444
würd	-2445
▁Bei	-2446
▁Tre	-2447
▁bew	-2448
▁dev	-2449
▁zie	-2450
▁Bewe	-2451
▁Geld	-2452
▁Haar	-2453
▁Will	-2454
▁arms	-2455
▁case	-2456
▁schö	-2457
ausend	-2458
▁Grund	-2459
▁given	-2460
▁könne	-2461
▁leben	-2462
▁reden	-2463
▁times	-2464
▁trotz	-2465
▁wegen	-2466
▁Mensch	-2467
▁leicht	-2468
▁lieben	-2469
▁wurden	-2470
üs	-2471
▁X	-2472
bur	-2473
fax	-2474
hau	-2475
ois	-2476
olz	-2477
inen	-2478
uten	-2479
▁bad	-2480
▁los	-2481
▁pos	-2482
▁saß	-2483
ience	-2484
▁Lage	-2485
▁Thür	-2486
▁läng	-2487
▁pict	-2488
▁rich	-2489
airfax	-2490
nehmen	-2491
▁beide	-2492
▁beste	-2493
▁genug	-2494
prochen	-2495
▁Madame	-2496
▁hinein	-2497
▁believe	-2498
▁vergessen	-2499
▁wiederhol	-2500
Die	-2501
ake	-2502
▁Do	-2503
▁If	-2504
▁Ze	-2505
aden	-2506
bled	-2507
▁Fam	-2508
▁bra	-2509
▁dri	-2510
▁hüb	-2511
durch	-2512
ining	-2513
legen	-2514
▁Seit	-2515
▁able	-2516
▁bede	-2517
▁erzä	-2518
▁selt	-2519
▁sing	-2520
▁gener	-2521
▁offic	-2522
▁Homais	-2523
▁either	-2524
▁family	-2525
rö	-2526
ume	-2527
unt	-2528
▁Li	-2529
▁wr	-2530
aben	-2531
ault	-2532
▁Chr	-2533
▁Vol	-2534
▁pat	-2535
falls	-2536
illed	-2537
riage	-2538
uchte	-2539
üttel	-2540
▁circ	-2541
▁corn	-2542
▁fact	-2543
▁inde	-2544
▁paar	-2545
▁sagt	-2546
ousand	-2547
pected	-2548
▁Adele	-2549
▁court	-2550
▁cried	-2551
▁darin	-2552
achtete	-2553
▁entsch	-2554
▁hardly	-2555
▁lawyer	-2556
▁opened	-2557
▁sofort	-2558
▁Fairfax	-2559
▁eigenen	-2560
▁gegeben	-2561
▁reached	-2562
▁towards	-2563
▁Princess	-2564
▁bemerkte	-2565
▁remained	-2566
▁thousand	-2567
▁expression	-2568
▁wenigstens	-2569
gy	-2570
ede	-2571
eni	-2572
ime	-2573
par	-2574
use	-2575
▁Ap	-2576
▁Fü	-2577
ates	-2578
halt	-2579
olen	-2580
osop	-2581
ters	-2582
unft	-2583
zehn	-2584
ügel	-2585
▁Rom	-2586
▁eye	-2587
▁grö	-2588
▁joy	-2589
ances	-2590
inden	-2591
rauen	-2592
recht	-2593
reten	-2594
üster	-2595
▁Engl	-2596
▁form	-2597
▁glad	-2598
▁lost	-2599
▁spir	-2600
▁Licht	-2601
▁dafür	-2602
▁herab	-2603
▁zeigte	-2604
▁convers	-2605
▁country	-2606
▁silence	-2607
▁strange	-2608
onstantin	-2609
▁Gespräch	-2610
▁Iwanowitsch	-2611
arn	-2612
cri	-2613
gew	-2614
ißt	-2615
▁Sa	-2616
eint	-2617
hält	-2618
pfen	-2619
▁Nun	-2620
▁ask	-2621
annte	-2622
selbe	-2623
unkel	-2624
änder	-2625
▁anzu	-2626
▁coll	-2627
▁fire	-2628
▁sign	-2629
essing	-2630
ichtig	-2631
▁Famil	-2632
▁Hände	-2633
▁Recht	-2634
▁bring	-2635
▁dream	-2636
▁quiet	-2637
▁unver	-2638
hilosop	-2639
▁schrie	-2640
▁bereits	-2641
▁eigentlich	-2642
Na	-2643
ub	-2644
cul	-2645
hst	-2646
ieß	-2647
ule	-2648
zer	-2649
▁sw	-2650
head	-2651
lock	-2652
sinn	-2653
▁Gen	-2654
▁One	-2655
▁fle	-2656
affen	-2657
ccess	-2658
▁Mein	-2659
▁Ruhe	-2660
▁bewe	-2661
▁groß	-2662
▁idea	-2663
▁mist	-2664
▁näch	-2665
reiben	-2666
▁fügte	-2667
▁näher	-2668
▁Besuch	-2669
▁Kirche	-2670
▁halten	-2671
▁taking	-2672
▁wished	-2673
ließlich	-2674
Why	-2675
irt	-2676
ped	-2677
rug	-2678
uer	-2679
zig	-2680
▁Mü	-2681
----	-2682
fore	-2683
iful	-2684
othe	-2685
read	-2686
ücke	-2687
▁Gel	-2688
▁Joe	-2689
▁emp	-2690
▁geg	-2691
▁hon	-2692
▁opp	-2693
▁swe	-2694
chsel	-2695
eless	-2696
▁Stre	-2697
▁Wahr	-2698
▁erho	-2699
▁gall	-2700
▁hall	-2701
▁thus	-2702
fangen	-2703
ichtet	-2704
▁deren	-2705
▁erwar	-2706
▁moved	-2707
▁neuen	-2708
▁notic	-2709
▁short	-2710
frieden	-2711
▁Wasser	-2712
▁around	-2713
▁compan	-2714
▁making	-2715
▁turning	-2716
▁interest	-2717
▁returned	-2718
ett	-2719
ohn	-2720
ört	-2721
▁Oh	-2722
▁Ur	-2723
bare	-2724
bten	-2725
euer	-2726
fahr	-2727
iety	-2728
imes	-2729
weil	-2730
zwei	-2731
▁ref	-2732
▁won	-2733
alten	-2734
auber	-2735
igeun	-2736
▁Auge	-2737
▁Jahr	-2738
▁Reed	-2739
▁acqu	-2740
▁bell	-2741
▁dear	-2742
▁four	-2743
▁geht	-2744
▁held	-2745
▁hung	-2746
▁past	-2747
▁pers	-2748
▁Tisch	-2749
▁often	-2750
riester	-2751
▁Stelle	-2752
▁Zigeun	-2753
▁beginn	-2754
▁dadurch	-2755
▁letzten	-2756
▁perhaps	-2757
▁necessary	-2758
▁Ä	-2759
dle	-2760
ium	-2761
kel	-2762
ror	-2763
dete	-2764
nder	-2765
oney	-2766
piel	-2767
stra	-2768
very	-2769
▁Arm	-2770
▁Beg	-2771
▁Ber	-2772
▁Ind	-2773
▁Tod	-2774
▁arr	-2775
▁dür	-2776
▁met	-2777
▁sun	-2778
▁zwe	-2779
dings	-2780
▁Trau	-2781
▁gold	-2782
▁hoch	-2783
▁land	-2784
▁lips	-2785
▁murm	-2786
▁nein	-2787
▁warf	-2788
ements	-2789
ending	-2790
▁dahin	-2791
▁hören	-2792
▁kamen	-2793
autiful	-2794
tention	-2795
▁differ	-2796
▁reason	-2797
▁solche	-2798
▁bringen	-2799
▁solchen	-2800
▁position	-2801
▁yourself	-2802
▁verschieden	-2803
Th	-2804
hof	-2805
ils	-2806
lov	-2807
ury	-2808
aste	-2809
gang	-2810
hann	-2811
laim	-2812
ritt	-2813
▁che	-2814
▁mad	-2815
▁son	-2816
▁unm	-2817
field	-2818
where	-2819
äusch	-2820
▁Gest	-2821
▁Verb	-2822
▁Wohn	-2823
▁body	-2824
▁exam	-2825
▁fear	-2826
▁frei	-2827
▁halb	-2828
▁imag	-2829
▁kiss	-2830
▁unbe	-2831
▁verb	-2832
▁whis	-2833
ceived	-2834
▁Boden	-2835
▁Notre	-2836
▁Schne	-2837
▁happy	-2838
▁power	-2839
▁surpr	-2840
▁coming	-2841
▁hinauf	-2842
▁vorher	-2843
▁however	-2844
▁present	-2845
▁Monsieur	-2846
▁Priester	-2847
▁versetzte	-2848
So	-2849
irn	-2850
orm	-2851
ased	-2852
ceed	-2853
hnen	-2854
icul	-2855
iers	-2856
itze	-2857
▁ele	-2858
▁int	-2859
▁six	-2860
▁Dame	-2861
▁comm	-2862
▁deep	-2863
▁jene	-2864
▁ment	-2865
▁port	-2866
▁tone	-2867
▁After	-2868
▁Feuer	-2869
▁Tages	-2870
▁deine	-2871
▁erinn	-2872
▁horse	-2873
▁junge	-2874
▁legte	-2875
▁leise	-2876
▁sonst	-2877
▁Christ	-2878
▁Johann	-2879
▁Person	-2880
▁entire	-2881
▁herein	-2882
▁school	-2883
▁Fürstin	-2884
▁beschäft	-2885
▁terrible	-2886
▁Konstantin	-2887
▁conversation	-2888
In	-2889
ipp	-2890
rot	-2891
ski	-2892
ärt	-2893
▁Kn	-2894
▁Zw	-2895
▁af	-2896
▁ap	-2897
▁aw	-2898
▁sn	-2899
▁vö	-2900
▁är	-2901
that	-2902
▁Dom	-2903
▁Trä	-2904
▁boy	-2905
▁cho	-2906
▁erg	-2907
▁mou	-2908
▁ord	-2909
▁pap	-2910
▁sob	-2911
aving	-2912
haupt	-2913
nisse	-2914
schau	-2915
▁Wirk	-2916
▁cand	-2917
▁grow	-2918
▁kept	-2919
▁prin	-2920
ischer	-2921
▁cover	-2922
▁occup	-2923
▁sleep	-2924
▁super	-2925
blieben	-2926
▁Mittel	-2927
▁Peters	-2928
▁became	-2929
▁lieber	-2930
ornfield	-2931
▁beneath	-2932
▁brachte	-2933
▁nachdem	-2934
▁pleased	-2935
▁daughter	-2936
▁thinking	-2937
▁thoughts	-2938
.‹	-2939
rü	-2940
ßt	-2941
hlt	-2942
org	-2943
▁ut	-2944
amed	-2945
eten	-2946
viel	-2947
▁Bür	-2948
▁Ing	-2949
▁Kap	-2950
▁Rei	-2951
▁mus	-2952
icken	-2953
ville	-2954
örper	-2955
▁Himm	-2956
▁cent	-2957
▁lief	-2958
▁neue	-2959
▁trou	-2960
▁true	-2961
▁verh	-2962
▁wood	-2963
▁zwar	-2964
▁Brief	-2965
▁Menge	-2966
▁charm	-2967
▁laugh	-2968
▁money	-2969
▁obser	-2970
▁remar	-2971
▁visit	-2972
ossible	-2973
▁Freude	-2974
▁glaube	-2975
▁Erinner	-2976
▁Während	-2977
▁endlich	-2978
▁erblick	-2979
▁quickly	-2980
▁success	-2981
▁lächelnd	-2982
▁Petersbur	-2983
▁beautiful	-2984
▁glücklich	-2985
▁verlassen	-2986
▁Thornfield	-2987
co	-2988
cy	-2989
ok	-2990
War	-2991
abt	-2992
ehm	-2993
esh	-2994
fre	-2995
iar	-2996
rat	-2997
rew	-2998
riv	-2999
ütz	-3000
ücht	-3001
▁Bar	-3002
▁Weg	-3003
▁abs	-3004
▁led	-3005
▁use	-3006
asten	-3007
ility	-3008
iment	-3009
ually	-3010
▁Arzt	-3011
▁Beck	-3012
▁beob	-3013
▁play	-3014
▁thun	-3015
▁year	-3016
genden	-3017
▁break	-3018
▁erste	-3019
▁gewiß	-3020
▁human	-3021
▁macht	-3022
▁tears	-3023
▁dinner	-3024
▁itself	-3025
▁mensch	-3026
▁second	-3027
▁sollen	-3028
▁archite	-3029
▁talking	-3030
▁verschw	-3031
▁repeated	-3032
scheinlich	-3033
He	-3034
vi	-3035
zn	-3036
chs	-3037
kau	-3038
str	-3039
ths	-3040
utz	-3041
vel	-3042
yre	-3043
▁Bü	-3044
▁kr	-3045
Dame	-3046
bild	-3047
inde	-3048
merk	-3049
ress	-3050
▁Frü	-3051
▁Sel	-3052
▁nam	-3053
▁rid	-3054
etter	-3055
lafen	-3056
scher	-3057
▁Arch	-3058
▁Bess	-3059
▁Luft	-3060
▁dead	-3061
▁disp	-3062
▁prom	-3063
▁says	-3064
▁sehe	-3065
immung	-3066
kannte	-3067
laimed	-3068
lassen	-3069
▁Besch	-3070
▁Stück	-3071
▁welch	-3072
standen	-3073
▁Schrit	-3074
▁Vergnü	-3075
▁garden	-3076
▁jungen	-3077
▁presen	-3078
▁Straßen	-3079
▁sitting	-3080
▁waiting	-3081
▁straight	-3082
▁beginning	-3083
▁different	-3084
uz	-3085
erm	-3086
yed	-3087
ähr	-3088
▁Cl	-3089
gere	-3090
iert	-3091
medi	-3092
wers	-3093
▁Gal	-3094
▁det	-3095
▁fro	-3096
▁fur	-3097
▁las	-3098
asche	-3099
igion	-3100
ities	-3101
itzen	-3102
kunft	-3103
ments	-3104
▁Eyre	-3105
▁gute	-3106
▁kurz	-3107
▁view	-3108
though	-3109
ziehen	-3110
▁Becky	-3111
▁Dinge	-3112
▁Stein	-3113
▁angen	-3114
▁aufge	-3115
▁bitte	-3116
▁close	-3117
▁death	-3118
▁genau	-3119
▁liked	-3120
▁Blicke	-3121
▁become	-3122
▁furcht	-3123
▁schlug	-3124
▁deshalb	-3125
▁subject	-3126
▁einander	-3127
▁important	-3128
vol	-3129
zeu	-3130
▁My	-3131
▁op	-3132
▁vi	-3133
ains	-3134
fied	-3135
ilde	-3136
lief	-3137
nten	-3138
unkt	-3139
vern	-3140
zieh	-3141
ünst	-3142
▁Teu	-3143
▁bar	-3144
▁ben	-3145
▁cre	-3146
▁cry	-3147
▁eil	-3148
▁enc	-3149
▁est	-3150
▁gaz	-3151
▁pol	-3152
▁sen	-3153
▁squ	-3154
ended	-3155
inken	-3156
itten	-3157
owers	-3158
ution	-3159
wards	-3160
wärts	-3161
▁Arme	-3162
▁Leni	-3163
▁calm	-3164
▁deut	-3165
▁fore	-3166
▁lady	-3167
▁used	-3168
ancing	-3169
undred	-3170
▁ought	-3171
▁traur	-3172
▁weder	-3173
gegnete	-3174
▁Finger	-3175
▁Mittag	-3176
▁Seiten	-3177
▁allgem	-3178
▁breath	-3179
▁closed	-3180
▁living	-3181
▁meinte	-3182
▁suchte	-3183
▁suffer	-3184
▁Gedanke	-3185
▁respect	-3186
▁schreck	-3187
▁weniger	-3188
▁erhalten	-3189
▁hinunter	-3190
▁Zigeunerin	-3191
jo	-3192
ös	-3193
cap	-3194
ery	-3195
hev	-3196
kes	-3197
mäß	-3198
rov	-3199
äus	-3200
üst	-3201
▁ph	-3202
alle	-3203
ande	-3204
bles	-3205
osed	-3206
side	-3207
zeug	-3208
änge	-3209
▁Grä	-3210
▁Hut	-3211
▁Rou	-3212
▁pie	-3213
▁äuß	-3214
bling	-3215
geste	-3216
itude	-3217
▁Alle	-3218
▁Eine	-3219
▁Just	-3220
▁Sohn	-3221
▁Tone	-3222
▁late	-3223
▁pfle	-3224
▁trug	-3225
▁uner	-3226
▁writ	-3227
achtet	-3228
inuten	-3229
▁Kleid	-3230
▁Nicht	-3231
▁doing	-3232
▁exper	-3233
▁judge	-3234
▁lived	-3235
▁spoke	-3236
▁state	-3237
brigens	-3238
ständig	-3239
▁Apothe	-3240
▁Teufel	-3241
▁Treppe	-3242
▁change	-3243
▁during	-3244
▁fahren	-3245
▁fellow	-3246
▁immedi	-3247
▁tender	-3248
▁völlig	-3249
▁hundred	-3250
▁pleasure	-3251
▁impossible	-3252
Al	-3253
fr	-3254
aub	-3255
yps	-3256
zei	-3257
▁TH	-3258
dien	-3259
enty	-3260
ftig	-3261
haus	-3262
hrer	-3263
roll	-3264
umed	-3265
▁Ann	-3266
▁Hal	-3267
▁cor	-3268
▁mel	-3269
▁wee	-3270
antly	-3271
brach	-3272
cious	-3273
führt	-3274
igend	-3275
unken	-3276
zeich	-3277
▁bear	-3278
▁crow	-3279
▁erkl	-3280
▁evid	-3281
▁laut	-3282
▁lieb	-3283
▁peas	-3284
▁town	-3285
deacon	-3286
ochter	-3287
stehen	-3288
▁Damen	-3289
▁Kraft	-3290
▁Richt	-3291
▁auszu	-3292
▁cloth	-3293
▁jedes	-3294
▁jenem	-3295
▁müsse	-3296
▁warum	-3297
▁Bessie	-3298
▁Furcht	-3299
▁forgot	-3300
▁gehabt	-3301
▁langen	-3302
▁struck	-3303
▁within	-3304
▁Minuten	-3305
▁drawing	-3306
▁minutes	-3307
▁seltsam	-3308
▁vorüber	-3309
▁öffnete	-3310
▁speaking	-3311
▁architect	-3312
▁exclaimed	-3313
▁gentlemen	-3314
▁therefore	-3315
▁Petersburg	-3316
II	-3317
oß	-3318
sy	-3319
wä	-3320
ama	-3321
aug	-3322
idi	-3323
ony	-3324
phe	-3325
üge	-3326
▁Bä	-3327
ehan	-3328
erde	-3329
iebt	-3330
itte	-3331
opin	-3332
pted	-3333
räul	-3334
znys	-3335
▁Ach	-3336
▁Jac	-3337
▁Mon	-3338
▁Pfl	-3339
▁cra	-3340
▁eng	-3341
▁sym	-3342
▁tat	-3343
aused	-3344
baren	-3345
glück	-3346
rehen	-3347
schaf	-3348
stood	-3349
wegen	-3350
▁Teil	-3351
▁bott	-3352
▁gele	-3353
▁hoff	-3354
▁prob	-3355
▁slow	-3356
▁weak	-3357
atever	-3358
regung	-3359
▁Jehan	-3360
▁Kopfe	-3361
▁dress	-3362
▁ready	-3363
▁steps	-3364
▁truth	-3365
▁umher	-3366
▁verst	-3367
räulein	-3368
znyshev	-3369
▁Händen	-3370
▁Lippen	-3371
▁corner	-3372
▁hätten	-3373
▁suchen	-3374
igkeiten	-3375
▁Archidi	-3376
▁entfern	-3377
▁glauben	-3378
▁whisper	-3379
▁entgegen	-3380
▁listened	-3381
▁obgleich	-3382
▁schüttel	-3383
elegenheit	-3384
▁Koznyshev	-3385
▁überhaupt	-3386
▁Empfindung	-3387
▁Alexandrowna	-3388
hü	-3389
▁~	-3390
aby	-3391
eth	-3392
tra	-3393
▁14	-3394
▁Ly	-3395
aven	-3396
cial	-3397
iana	-3398
iled	-3399
itel	-3400
oned	-3401
ston	-3402
▁Hil	-3403
▁Wes	-3404
▁adm	-3405
▁bek	-3406
▁cut	-3407
▁pur	-3408
▁tem	-3409
hrten	-3410
ierte	-3411
tered	-3412
▁Hier	-3413
▁Ungl	-3414
▁Well	-3415
▁coun	-3416
▁etwa	-3417
▁euch	-3418
▁free	-3419
▁gyps	-3420
▁heav	-3421
▁pill	-3422
▁trem	-3423
▁vern	-3424
weigen	-3425
▁Darja	-3426
▁Kunst	-3427
▁Stirn	-3428
▁Wesen	-3429
▁chair	-3430
▁cross	-3431
▁heißt	-3432
▁schau	-3433
▁sever	-3434
▁steht	-3435
▁Ingram	-3436
▁effort	-3437
▁forget	-3438
▁gering	-3439
▁jemand	-3440
▁prince	-3441
▁wunder	-3442
gegangen	-3443
▁Meister	-3444
▁Stunden	-3445
▁running	-3446
▁bekommen	-3447
▁allerdings	-3448
We	-3449
--"	-3450
Wir	-3451
abe	-3452
aff	-3453
des	-3454
ism	-3455
ole	-3456
uhr	-3457
wie	-3458
you	-3459
▁Ob	-3460
Wenn	-3461
arde	-3462
ards	-3463
heim	-3464
herr	-3465
ickt	-3466
raid	-3467
▁Str	-3468
▁col	-3469
▁fal	-3470
▁inn	-3471
▁len	-3472
erste	-3473
igten	-3474
teten	-3475
▁Mich	-3476
▁Sein	-3477
▁Sinn	-3478
▁Weib	-3479
▁With	-3480
▁darf	-3481
▁dest	-3482
▁disa	-3483
▁erfü	-3484
▁herr	-3485
▁klar	-3486
▁oben	-3487
▁pret	-3488
▁show	-3489
▁sigh	-3490
stande	-3491
▁Schön	-3492
▁Stadt	-3493
▁field	-3494
▁glass	-3495
▁hours	-3496
▁learn	-3497
▁liebe	-3498
▁stark	-3499
▁stets	-3500
▁weißt	-3501
▁letter	-3502
▁spread	-3503
▁walked	-3504
▁Familie	-3505
▁Tochter	-3506
▁noticed	-3507
▁picture	-3508
▁wollten	-3509
▁durchaus	-3510
▁erschien	-3511
▁nächsten	-3512
▁philosop	-3513
▁standing	-3514
▁verloren	-3515
▁Advokaten	-3516
▁geblieben	-3517
▁unmöglich	-3518
▁archdeacon	-3519
▁understood	-3520
▁immediately	-3521
!‹	-3522
Er	-3523
IN	-3524
hoe	-3525
uen	-3526
uff	-3527
weg	-3528
ähe	-3529
▁Ag	-3530
ager	-3531
lung	-3532
▁Gut	-3533
▁Män	-3534
▁Ton	-3535
▁Tro	-3536
▁def	-3537
▁glo	-3538
▁mem	-3539
Warum	-3540
anzig	-3541
icult	-3542
mlich	-3543
outed	-3544
richt	-3545
▁Erde	-3546
▁Hoff	-3547
▁anim	-3548
▁cham	-3549
▁drau	-3550
▁fair	-3551
▁gibt	-3552
▁jung	-3553
▁mann	-3554
▁vert	-3555
erlich	-3556
▁ausge	-3557
▁clerk	-3558
▁floor	-3559
▁seems	-3560
▁seien	-3561
▁stone	-3562
▁unser	-3563
▁viele	-3564
▁wolle	-3565
▁ärger	-3566
▁Garten	-3567
▁except	-3568
▁former	-3569
▁please	-3570
▁seeing	-3571
▁silent	-3572
▁Zweifel	-3573
▁einzige	-3574
▁getting	-3575
▁glaubte	-3576
▁holding	-3577
▁langsam	-3578
▁Wahrheit	-3579
▁gefunden	-3580
▁happened	-3581
▁lächelte	-3582
▁offenbar	-3583
▁zufrieden	-3584
▁entgegnete	-3585
fig	-3586
int	-3587
jen	-3588
ney	-3589
oly	-3590
sal	-3591
zed	-3592
ader	-3593
elen	-3594
osen	-3595
path	-3596
usch	-3597
▁Ehe	-3598
▁Rue	-3599
▁Von	-3600
▁shr	-3601
▁tou	-3602
▁vag	-3603
▁wid	-3604
▁yes	-3605
aught	-3606
hielt	-3607
höbus	-3608
night	-3609
ochte	-3610
ounte	-3611
pping	-3612
rived	-3613
rächt	-3614
▁beau	-3615
▁hing	-3616
▁neck	-3617
▁pity	-3618
▁verw	-3619
achsen	-3620
hoebus	-3621
lungen	-3622
setzen	-3623
▁Schla	-3624
▁darum	-3625
▁loved	-3626
▁neuem	-3627
▁Diener	-3628
▁Gräfin	-3629
▁Jahren	-3630
▁Tränen	-3631
▁afraid	-3632
▁befand	-3633
▁folgte	-3634
▁gesche	-3635
▁ground	-3636
▁spirit	-3637
schaften	-3638
▁Gestalt	-3639
▁Verhält	-3640
▁unglück	-3641
▁Gerichts	-3642
▁although	-3643
▁entirely	-3644
▁strength	-3645
▁Vergnügen	-3646
▁sometimes	-3647
▁Geschichte	-3648
▁gesprochen	-3649
▁betrachtete	-3650
An	-3651
rt	-3652
öp	-3653
ior	-3654
änz	-3655
▁Wh	-3656
angt	-3657
annt	-3658
cing	-3659
eben	-3660
gust	-3661
häng	-3662
ückt	-3663
▁Ord	-3664
▁Pal	-3665
▁Sam	-3666
▁Spr	-3667
▁Wor	-3668
▁exp	-3669
▁fig	-3670
▁mot	-3671
▁näm	-3672
▁tor	-3673
athed	-3674
ature	-3675
ively	-3676
ollen	-3677
ottes	-3678
▁Auch	-3679
▁grew	-3680
▁infl	-3681
▁inqu	-3682
▁iron	-3683
▁jede	-3684
▁nahe	-3685
▁opin	-3686
▁quar	-3687
▁teil	-3688
▁augen	-3689
▁beruh	-3690
▁earth	-3691
▁satis	-3692
▁sight	-3693
ountess	-3694
▁Clopin	-3695
▁Dieser	-3696
▁Gesetz	-3697
▁Gleich	-3698
▁Schuld	-3699
▁Selbst	-3700
▁Wieder	-3701
▁charac	-3702
▁fallen	-3703
▁keiner	-3704
▁ladies	-3705
▁length	-3706
▁meines	-3707
▁sonder	-3708
▁verlie	-3709
▁flüster	-3710
▁hurried	-3711
▁passion	-3712
▁shouted	-3713
▁welchem	-3714
▁genommen	-3715
▁attention	-3716
▁schwarzen	-3717
▁schüttelte	-3718
cow	-3719
leh	-3720
zug	-3721
▁Ja	-3722
▁kü	-3723
erei	-3724
fang	-3725
fähr	-3726
iene	-3727
ines	-3728
ital	-3729
ixed	-3730
like	-3731
rugg	-3732
schw	-3733
äter	-3734
▁Bed	-3735
▁THE	-3736
▁ago	-3737
▁div	-3738
▁ert	-3739
▁hob	-3740
▁lab	-3741
▁mov	-3742
▁pay	-3743
▁san	-3744
▁ten	-3745
▁trä	-3746
▁unp	-3747
▁val	-3748
ected	-3749
inary	-3750
ously	-3751
▁Anst	-3752
▁Ital	-3753
▁Krie	-3754
▁Mill	-3755
▁Mund	-3756
▁Ober	-3757
▁Zust	-3758
▁addr	-3759
▁arme	-3760
▁burn	-3761
▁heil	-3762
▁höch	-3763
▁moon	-3764
▁prev	-3765
▁schm	-3766
▁stir	-3767
▁stri	-3768
▁warm	-3769
ctions	-3770
kennen	-3771
recken	-3772
reifen	-3773
▁Alles	-3774
▁Betsy	-3775
▁Brock	-3776
▁Every	-3777
▁Sonne	-3778
▁aufzu	-3779
▁bread	-3780
▁carry	-3781
▁const	-3782
▁dread	-3783
▁gypsy	-3784
▁meant	-3785
▁usual	-3786
▁wrong	-3787
kannten	-3788
lehurst	-3789
▁Dienst	-3790
▁Moscow	-3791
▁accord	-3792
▁beside	-3793
▁damals	-3794
▁effect	-3795
▁freund	-3796
▁indeed	-3797
▁jedoch	-3798
▁trying	-3799
▁unsere	-3800
▁Nachdem	-3801
▁scheint	-3802
▁Bewegung	-3803
▁Countess	-3804
▁Fräulein	-3805
▁Stellung	-3806
▁probably	-3807
▁whatever	-3808
▁Schönheit	-3809
▁happiness	-3810
▁wiederholte	-3811
▁Brocklehurst	-3812
ms	-3813
Sch	-3814
She	-3815
dia	-3816
fty	-3817
gra	-3818
hme	-3819
ims	-3820
oup	-3821
öpf	-3822
▁Co	-3823
atze	-3824
enth	-3825
inal	-3826
ktor	-3827
nahm	-3828
ring	-3829
umpf	-3830
▁Fel	-3831
▁Lei	-3832
▁Why	-3833
▁Zwe	-3834
▁big	-3835
▁mil	-3836
▁mor	-3837
▁rau	-3838
▁unt	-3839
▁ähn	-3840
ammen	-3841
ammer	-3842
chmal	-3843
ciety	-3844
endes	-3845
endet	-3846
ingly	-3847
kannt	-3848
stadt	-3849
tened	-3850
▁Beis	-3851
▁Best	-3852
▁Hoch	-3853
▁Mond	-3854
▁Rück	-3855
▁acht	-3856
▁five	-3857
▁frem	-3858
▁pale	-3859
▁self	-3860
▁sens	-3861
aconus	-3862
anging	-3863
erence	-3864
gungen	-3865
ission	-3866
weilen	-3867
▁Franz	-3868
▁Lydia	-3869
▁Onkel	-3870
▁accom	-3871
▁compl	-3872
▁contr	-3873
▁erhob	-3874
▁faßte	-3875
▁fresh	-3876
▁getan	-3877
▁mächt	-3878
▁nurse	-3879
▁piece	-3880
▁separ	-3881
▁stret	-3882
▁trees	-3883
▁trial	-3884
▁Moskau	-3885
▁Phöbus	-3886
▁Tische	-3887
▁candle	-3888
▁comple	-3889
▁expect	-3890
▁führte	-3891
▁weißen	-3892
▁zitter	-3893
▁Anblick	-3894
▁Richter	-3895
▁account	-3896
▁company	-3897
▁einfach	-3898
▁fingers	-3899
▁interru	-3900
▁stellte	-3901
▁überzeu	-3902
▁approach	-3903
▁certainly	-3904
▁erblickte	-3905
Do	-3906
If	-3907
hnt	-3908
ina	-3909
mar	-3910
pid	-3911
ußt	-3912
van	-3913
üre	-3914
▁Ex	-3915
▁Is	-3916
alth	-3917
arbe	-3918
iere	-3919
inne	-3920
ized	-3921
mack	-3922
nden	-3923
nehm	-3924
ques	-3925
vell	-3926
what	-3927
ünde	-3928
▁Gru	-3929
▁Ker	-3930
▁Nie	-3931
▁Sal	-3932
▁Var	-3933
▁biß	-3934
▁box	-3935
▁cat	-3936
▁emb	-3937
▁kom	-3938
▁med	-3939
▁try	-3940
bogen	-3941
ennen	-3942
ertig	-3943
essel	-3944
iegen	-3945
seits	-3946
volle	-3947
while	-3948
▁Bank	-3949
▁Eind	-3950
▁Frem	-3951
▁Ganz	-3952
▁Stud	-3953
▁drew	-3954
▁entr	-3955
▁entw	-3956
▁firm	-3957
▁heim	-3958
▁shad	-3959
▁sold	-3960
ielten	-3961
▁Brust	-3962
▁Diana	-3963
▁Natur	-3964
▁Peter	-3965
▁Pferd	-3966
▁crowd	-3967
▁heran	-3968
▁kenne	-3969
▁paper	-3970
▁recog	-3971
▁reply	-3972
▁resol	-3973
▁unten	-3974
▁zerst	-3975
▁Himmel	-3976
▁Pferde	-3977
▁bitter	-3978
▁bright	-3979
▁führen	-3980
▁letzte	-3981
▁nearly	-3982
▁pretty	-3983
▁twenty	-3984
▁zuerst	-3985
▁Ordnung	-3986
▁Phoebus	-3987
▁decided	-3988
▁friends	-3989
▁outside	-3990
▁richtig	-3991
▁schönen	-3992
▁started	-3993
▁traurig	-3994
▁windows	-3995
▁Richtung	-3996
▁gebracht	-3997
▁richtete	-3998
idenschaft	-3999
▁difficult	-4000
▁gentleman	-4001
▁natürlich	-4002
▁shoulders	-4003
▁Erinnerung	-4004
▁erschienen	-4005
ec	-4006
ux	-4007
dom	-4008
que	-4009
ubl	-4010
zeß	-4011
▁Sw	-4012
▁Tö	-4013
Then	-4014
bert	-4015
frau	-4016
hand	-4017
ians	-4018
ighb	-4019
lace	-4020
merz	-4021
onne	-4022
uche	-4023
ufen	-4024
umst	-4025
▁Fol	-4026
▁Thr	-4027
▁avo	-4028
▁exa	-4029
▁gle	-4030
▁har	-4031
▁leb	-4032
▁num	-4033
▁nöt	-4034
▁obl	-4035
▁sus	-4036
▁top	-4037
aring	-4038
isted	-4039
onnen	-4040
rench	-4041
ängen	-4042
▁Ange	-4043
▁Erst	-4044
▁Frei	-4045
▁Gute	-4046
▁Ivan	-4047
▁Male	-4048
▁Wind	-4049
▁bird	-4050
▁fanc	-4051
▁fein	-4052
▁hell	-4053
▁hind	-4054
▁inne	-4055
▁laid	-4056
▁legs	-4057
▁lock	-4058
▁lust	-4059
▁prop	-4060
▁pull	-4061
▁soft	-4062
aschen	-4063
ashion	-4064
schied	-4065
tended	-4066
▁Stock	-4067
▁bevor	-4068
▁clean	-4069
▁escap	-4070
▁geist	-4071
▁jenes	-4072
▁known	-4073
▁mouth	-4074
▁natur	-4075
▁schol	-4076
▁shook	-4077
▁solle	-4078
ination	-4079
onville	-4080
sichtig	-4081
▁Bauern	-4082
▁Hinter	-4083
▁beauty	-4084
▁bisher	-4085
▁filled	-4086
▁gingen	-4087
▁glance	-4088
▁lachte	-4089
▁middle	-4090
▁neighb	-4091
▁raised	-4092
▁regard	-4093
▁secret	-4094
▁showed	-4095
▁smiled	-4096
▁soeben	-4097
▁sprang	-4098
▁wonder	-4099
gebracht	-4100
▁Zeichen	-4101
▁changed	-4102
▁drückte	-4103
▁empfand	-4104
▁general	-4105
▁several	-4106
▁standen	-4107
▁welchen	-4108
▁carriage	-4109
▁character	-4110
▁verstehen	-4111
▁remembered	-4112
▁unterbrach	-4113
▁vollständig	-4114
▁Archidiaconus	-4115
Da	-4116
Is	-4117
do	-4118
üg	-4119
▁[	-4120
Der	-4121
amp	-4122
aul	-4123
erv	-4124
ili	-4125
ius	-4126
ize	-4127
low	-4128
müt	-4129
ply	-4130
atte	-4131
isse	-4132
iste	-4133
ists	-4134
ives	-4135
lose	-4136
rech	-4137
rift	-4138
scht	-4139
teen	-4140
tens	-4141
uden	-4142
umph	-4143
▁Ist	-4144
▁Kut	-4145
▁Mah	-4146
▁Red	-4147
▁ain	-4148
▁alt	-4149
▁dog	-4150
▁non	-4151
▁pal	-4152
▁sad	-4153
▁sal	-4154
acken	-4155
anced	-4156
angte	-4157
auern	-4158
ceive	-4159
ision	-4160
leide	-4161
oured	-4162
reise	-4163
▁Gefü	-4164
▁Wald	-4165
▁Wege	-4166
▁bein	-4167
▁cell	-4168
▁loud	-4169
▁prof	-4170
ishing	-4171
itions	-4172
ounded	-4173
spruch	-4174
▁Hilfe	-4175
▁Miene	-4176
▁Tagen	-4177
▁alter	-4178
▁extre	-4179
▁girls	-4180
▁heavy	-4181
▁krank	-4182
▁sicht	-4183
▁start	-4184
▁verle	-4185
▁watch	-4186
▁wirst	-4187
▁wobei	-4188
bringen	-4189
oiselle	-4190
▁French	-4191
▁Gottes	-4192
▁Prozeß	-4193
▁Schrei	-4194
▁Straße	-4195
▁anyone	-4196
▁fertig	-4197
▁merkte	-4198
▁simple	-4199
▁slight	-4200
▁slowly	-4201
▁traten	-4202
gekommen	-4203
gestellt	-4204
ätigkeit	-4205
▁English	-4206
▁Fürsten	-4207
▁allowed	-4208
▁anderes	-4209
▁carried	-4210
▁fortune	-4211
▁mention	-4212
▁neither	-4213
▁Hoffnung	-4214
▁dasselbe	-4215
▁presence	-4216
öglichkeit	-4217
▁Apotheker	-4218
▁derselben	-4219
▁erinnerte	-4220
▁everybody	-4221
▁evidently	-4222
▁vermochte	-4223
▁Gegenstand	-4224
▁considered	-4225
▁gewöhnlich	-4226
▁schließlich	-4227
My	-4228
aw	-4229
mm	-4230
Lys	-4231
aup	-4232
err	-4233
tis	-4234
ues	-4235
wel	-4236
▁Sh	-4237
▁Ue	-4238
▁rü	-4239
ails	-4240
alda	-4241
anch	-4242
ases	-4243
esse	-4244
ests	-4245
fect	-4246
fuhr	-4247
ises	-4248
lang	-4249
mehr	-4250
reis	-4251
rieb	-4252
such	-4253
test	-4254
▁Den	-4255
▁Leo	-4256
▁Mus	-4257
▁Vas	-4258
▁Wer	-4259
▁anx	-4260
▁hop	-4261
▁pen	-4262
▁pun	-4263
▁spl	-4264
▁une	-4265
ernen	-4266
heure	-4267
hrung	-4268
ipped	-4269
llten	-4270
ümmer	-4271
▁Dies	-4272
▁Gang	-4273
▁Mont	-4274
▁Weil	-4275
▁deal	-4276
▁easy	-4277
▁eins	-4278
▁gere	-4279
▁harm	-4280
▁lean	-4281
▁mine	-4282
▁step	-4283
▁ward	-4284
ftigen	-4285
▁Fleur	-4286
▁Jahrh	-4287
▁aston	-4288
▁drink	-4289
▁gloom	-4290
▁inner	-4291
▁knows	-4292
▁lesen	-4293
▁means	-4294
▁noise	-4295
▁sechs	-4296
▁tired	-4297
▁uncle	-4298
achtung	-4299
meralda	-4300
▁Körper	-4301
▁Schlaf	-4302
▁broken	-4303
▁deiner	-4304
▁finger	-4305
▁gather	-4306
▁kennen	-4307
▁nature	-4308
▁talked	-4309
▁vorbei	-4310
▁zeigen	-4311
ständnis	-4312
▁Absicht	-4313
▁Entschl	-4314
▁Kapitel	-4315
▁Unglück	-4316
▁covered	-4317
▁despair	-4318
▁disappe	-4319
▁proceed	-4320
▁Eindruck	-4321
▁Schritte	-4322
▁gegangen	-4323
▁hindurch	-4324
▁occupied	-4325
▁ziemlich	-4326
▁demselben	-4327
▁geschehen	-4328
▁gleichfalls	-4329
AR	-4330
Wo	-4331
ev	-4332
kn	-4333
uc	-4334
Now	-4335
ots	-4336
zel	-4337
▁Fe	-4338
▁Kü	-4339
▁Lö	-4340
aged	-4341
aken	-4342
aled	-4343
eper	-4344
erkt	-4345
fehl	-4346
iefe	-4347
ison	-4348
kehr	-4349
ones	-4350
reif	-4351
werk	-4352
ßten	-4353
▁Don	-4354
▁Tem	-4355
▁Yes	-4356
▁bez	-4357
▁blo	-4358
▁kla	-4359
▁lim	-4360
▁miß	-4361
acher	-4362
attle	-4363
ident	-4364
ielen	-4365
orben	-4366
ugend	-4367
ustom	-4368
zuste	-4369
▁Gold	-4370
▁Mühe	-4371
▁abzu	-4372
▁bank	-4373
▁conv	-4374
▁note	-4375
▁poet	-4376
▁prov	-4377
▁ring	-4378
▁road	-4379
▁situ	-4380
▁stür	-4381
▁vill	-4382
▁week	-4383
▁wore	-4384
führen	-4385
handen	-4386
wendig	-4387
würdig	-4388
▁Ihrer	-4389
▁Mauer	-4390
▁andre	-4391
▁brach	-4392
▁burst	-4393
▁cheer	-4394
▁chief	-4395
▁einge	-4396
▁force	-4397
▁habit	-4398
▁liegt	-4399
▁niedr	-4400
▁stieg	-4401
▁worth	-4402
▁überr	-4403
inander	-4404
▁Bezieh	-4405
▁Gewalt	-4406
▁Grunde	-4407
▁Herzog	-4408
▁Master	-4409
▁Prince	-4410
▁Winter	-4411
▁bereit	-4412
▁desire	-4413
▁explan	-4414
▁manner	-4415
▁morgen	-4416
▁office	-4417
▁princi	-4418
▁reader	-4419
▁sitzen	-4420
▁strong	-4421
▁tragen	-4422
▁warten	-4423
genommen	-4424
stellung	-4425
▁Kranken	-4426
▁Mitleid	-4427
▁clothes	-4428
▁concern	-4429
▁growing	-4430
▁knowing	-4431
▁passing	-4432
▁smiling	-4433
emoiselle	-4434
▁außerord	-4435
▁circumst	-4436
▁deutlich	-4437
▁finished	-4438
▁verstehe	-4439
▁Esmeralda	-4440
▁flüsterte	-4441
▁Geistliche	-4442
▁Möglichkeit	-4443
▁wahrscheinlich	-4444
ON	-4445
ai	-4446
bb	-4447
ls	-4448
Ein	-4449
die	-4450
ieb	-4451
olf	-4452
ral	-4453
ärm	-4454
öse	-4455
ült	-4456
Mein	-4457
ator	-4458
ding	-4459
ffiz	-4460
heir	-4461
ikol	-4462
ität	-4463
olas	-4464
pfte	-4465
sequ	-4466
vely	-4467
yond	-4468
zess	-4469
▁Dor	-4470
▁Gre	-4471
▁Gro	-4472
▁Mil	-4473
▁Som	-4474
▁Ves	-4475
▁bal	-4476
▁ehr	-4477
▁fut	-4478
▁hol	-4479
▁pav	-4480
▁sle	-4481
▁tea	-4482
alter	-4483
boten	-4484
indet	-4485
losen	-4486
ouses	-4487
sache	-4488
wesen	-4489
▁Denn	-4490
▁King	-4491
▁Lieb	-4492
▁Sche	-4493
▁Schn	-4494
▁Some	-4495
▁Tour	-4496
▁baby	-4497
▁drag	-4498
▁dull	-4499
▁fern	-4500
▁grau	-4501
▁habt	-4502
▁lead	-4503
▁mass	-4504
▁nice	-4505
▁requ	-4506
▁seuf	-4507
▁spät	-4508
▁verk	-4509
▁viol	-4510
altung	-4511
ließen	-4512
reckte	-4513
schuld	-4514
stände	-4515
uments	-4516
▁Füßen	-4517
▁Nikol	-4518
▁Spiel	-4519
▁Tante	-4520
▁angel	-4521
▁broke	-4522
▁cause	-4523
▁crown	-4524
▁empor	-4525
▁fixed	-4526
▁grass	-4527
▁guten	-4528
▁jedem	-4529
▁refle	-4530
▁sense	-4531
▁stieß	-4532
▁wider	-4533
▁wohin	-4534
meister	-4535
▁Männer	-4536
▁Rücken	-4537
▁across	-4538
▁anders	-4539
▁caught	-4540
▁chance	-4541
▁dürfen	-4542
▁eigene	-4543
▁follow	-4544
▁fragen	-4545
▁gemein	-4546
▁liebte	-4547
▁memory	-4548
▁schöne	-4549
▁sobald	-4550
▁street	-4551
▁unable	-4552
▁unwill	-4553
▁willst	-4554
▁winter	-4555
ightened	-4556
▁Ansicht	-4557
▁Kirchen	-4558
▁Univers	-4559
▁Verzwei	-4560
▁besides	-4561
▁chamber	-4562
▁dagegen	-4563
▁delight	-4564
▁fashion	-4565
▁servant	-4566
▁trouble	-4567
▁watched	-4568
▁Schatten	-4569
▁bestimmt	-4570
▁complete	-4571
▁entfernt	-4572
▁erkannte	-4573
▁expected	-4574
▁feelings	-4575
▁geradezu	-4576
▁imstande	-4577
▁observed	-4578
▁received	-4579
▁Schultern	-4580
▁Tätigkeit	-4581
▁direction	-4582
▁vorhanden	-4583
▁whispered	-4584
▁approached	-4585
▁beschäftigt	-4586
?‹	-4587
EN	-4588
mn	-4589
oe	-4590
Tis	-4591
Wer	-4592
app	-4593
arc	-4594
pal	-4595
rib	-4596
uty	-4597
wig	-4598
▁"'	-4599
▁By	-4600
▁Mo	-4601
▁Te	-4602
aves	-4603
dies	-4604
fact	-4605
oman	-4606
setz	-4607
urer	-4608
zähl	-4609
ügen	-4610
▁Bur	-4611
▁End	-4612
▁Glo	-4613
▁Gou	-4614
▁Let	-4615
▁Rau	-4616
▁Rud	-4617
▁San	-4618
▁Sid	-4619
▁Wun	-4620
▁cou	-4621
▁leg	-4622
Nicht	-4623
alous	-4624
aunen	-4625
boden	-4626
duced	-4627
hören	-4628
utung	-4629
▁Hals	-4630
▁Here	-4631
▁Nähe	-4632
▁Tell	-4633
▁aufs	-4634
▁bare	-4635
▁cast	-4636
▁city	-4637
▁farm	-4638
▁jour	-4639
▁klop	-4640
▁mite	-4641
▁pock	-4642
▁sage	-4643
▁sake	-4644
▁sank	-4645
▁send	-4646
▁stop	-4647
▁vorz	-4648
assung	-4649
ighted	-4650
ildete	-4651
ischte	-4652
quette	-4653
schlag	-4654
treten	-4655
ändert	-4656
▁Golen	-4657
▁Krank	-4658
▁Mason	-4659
▁Offiz	-4660
▁Reihe	-4661
▁Roman	-4662
▁Stuhl	-4663
▁Traum	-4664
▁coach	-4665
▁conne	-4666
▁faith	-4667
▁gazed	-4668
▁grave	-4669
▁komme	-4670
▁later	-4671
▁liber	-4672
▁sieht	-4673
▁spect	-4674
▁threw	-4675
▁throw	-4676
▁walls	-4677
▁zweif	-4678
brochen	-4679
ichtete	-4680
richter	-4681
sichten	-4682
▁Sommer	-4683
▁Worten	-4684
▁distin	-4685
▁future	-4686
▁ganzes	-4687
▁hübsch	-4688
▁kannst	-4689
▁kannte	-4690
▁myster	-4691
▁placed	-4692
▁prächt	-4693
▁sicher	-4694
▁später	-4695
▁Gefühle	-4696
▁However	-4697
▁Meinung	-4698
▁Zustand	-4699
▁affairs	-4700
▁arrived	-4701
▁beinahe	-4702
▁bestimm	-4703
▁bißchen	-4704
▁captain	-4705
▁draußen	-4706
▁flowers	-4707
▁leaving	-4708
▁machten	-4709
▁married	-4710
▁opinion	-4711
▁pressed	-4712
▁reading	-4713
▁solcher	-4714
▁sollten	-4715
▁walking	-4716
▁wartete	-4717
▁Beispiel	-4718
▁Erschein	-4719
▁erfahren	-4720
▁erkennen	-4721
▁marriage	-4722
▁remarked	-4723
▁schlecht	-4724
▁wünschte	-4725
▁Geschmack	-4726
▁Schweigen	-4727
▁Untersuch	-4728
▁forgotten	-4729
▁schlechter	-4730
▁miteinander	-4731
mö	-4732
Who	-4733
del	-4734
mas	-4735
off	-4736
ofs	-4737
pfl	-4738
rid	-4739
äßt	-4740
▁La	-4741
▁Sä	-4742
▁ce	-4743
▁ur	-4744
Come	-4745
Jane	-4746
eter	-4747
gele	-4748
gült	-4749
hold	-4750
ices	-4751
iche	-4752
iele	-4753
olle	-4754
ouis	-4755
rily	-4756
rote	-4757
uren	-4758
vier	-4759
älte	-4760
▁Hin	-4761
▁Oud	-4762
▁Rel	-4763
▁Spe	-4764
▁aud	-4765
▁dry	-4766
▁dur	-4767
▁ehe	-4768
▁rei	-4769
▁sum	-4770
ables	-4771
derte	-4772
flung	-4773
hafte	-4774
iefen	-4775
immen	-4776
jasch	-4777
jenka	-4778
maßen	-4779
reien	-4780
usion	-4781
▁Ecke	-4782
▁Flam	-4783
▁Fort	-4784
▁Glas	-4785
▁Rede	-4786
▁ball	-4787
▁band	-4788
▁blue	-4789
▁deaf	-4790
▁diss	-4791
▁erle	-4792
▁jump	-4793
▁prep	-4794
▁priv	-4795
▁scre	-4796
▁seid	-4797
▁thin	-4798
▁tong	-4799
culiar	-4800
denken	-4801
lichem	-4802
mittag	-4803
roffen	-4804
terben	-4805
vollen	-4806
öffnet	-4807
▁Regen	-4808
▁Stand	-4809
▁Trist	-4810
▁ander	-4811
▁blood	-4812
▁cloud	-4813
▁drawn	-4814
▁early	-4815
▁einzu	-4816
▁erlau	-4817
▁ernst	-4818
▁jenen	-4819
▁miser	-4820
▁rapid	-4821
▁starr	-4822
▁taste	-4823
ardinal	-4824
gesehen	-4825
istence	-4826
prechen	-4827
theless	-4828
▁Dasein	-4829
▁Dingen	-4830
▁Mahiet	-4831
▁asleep	-4832
▁behaup	-4833
▁belong	-4834
▁beyond	-4835
▁giving	-4836
▁großer	-4837
▁heaven	-4838
▁ließen	-4839
▁moving	-4840
▁object	-4841
▁recall	-4842
▁simply	-4843
▁wander	-4844
--------	-4845
▁Michail	-4846
▁Wirkung	-4847
▁clearly	-4848
▁distant	-4849
▁exactly	-4850
▁finally	-4851
▁forward	-4852
ielleicht	-4853
▁einzigen	-4854
▁peculiar	-4855
▁sprachen	-4856
▁stranger	-4857
▁zugleich	-4858
▁Alexander	-4859
▁listening	-4860
▁versuchte	-4861
▁vollkommen	-4862
▁allgemeinen	-4863
▁geschrieben	-4864
▁interrupted	-4865
▁Verzweiflung	-4866
",	-4867
zz	-4868
!--	-4869
All	-4870
agd	-4871
bye	-4872
con	-4873
ics	-4874
irg	-4875
opf	-4876
opp	-4877
oth	-4878
rig	-4879
uct	-4880
uls	-4881
wen	-4882
üng	-4883
▁Lo	-4884
Good	-4885
They	-4886
aber	-4887
alen	-4888
bung	-4889
este	-4890
hung	-4891
hört	-4892
look	-4893
oßen	-4894
pper	-4895
same	-4896
stes	-4897
wart	-4898
ällt	-4899
öpfe	-4900
ühen	-4901
▁Alt	-4902
▁Har	-4903
▁Hem	-4904
▁Kle	-4905
▁Kna	-4906
▁Pil	-4907
▁Reg	-4908
▁Swi	-4909
▁Tur	-4910
▁Wol	-4911
▁err	-4912
▁fif	-4913
▁häu	-4914
▁inj	-4915
▁pet	-4916
▁tot	-4917
▁van	-4918
ahlen	-4919
asion	-4920
cited	-4921
ested	-4922
folge	-4923
ghing	-4924
icked	-4925
idung	-4926
ischt	-4927
tempt	-4928
▁Hund	-4929
▁Leon	-4930
▁Nein	-4931
▁Port	-4932
▁Prof	-4933
▁Verl	-4934
▁Vorh	-4935
▁boys	-4936
▁desc	-4937
▁erhe	-4938
▁hill	-4939
▁miss	-4940
▁müde	-4941
▁none	-4942
▁nose	-4943
▁prec	-4944
▁roll	-4945
▁seat	-4946
▁tall	-4947
▁wert	-4948
▁zehn	-4949
aining	-4950
icular	-4951
ounced	-4952
overed	-4953
ändern	-4954
▁Armen	-4955
▁Eisen	-4956
▁Gates	-4957
▁Macht	-4958
▁Mitte	-4959
▁build	-4960
▁comes	-4961
▁devil	-4962
▁dicht	-4963
▁hohen	-4964
▁influ	-4965
▁mögen	-4966
▁nötig	-4967
▁offer	-4968
▁peace	-4969
▁plain	-4970
▁rings	-4971
▁sorry	-4972
▁spent	-4973
▁thank	-4974
▁thick	-4975
▁timid	-4976
▁until	-4977
drücken	-4978
haltung	-4979
wechsel	-4980
▁Dunkel	-4981
▁Leuten	-4982
▁Rudolf	-4983
▁Schule	-4984
▁Sonnen	-4985
▁Wunsch	-4986
▁beheld	-4987
▁danger	-4988
▁drehte	-4989
▁dunkel	-4990
▁folgen	-4991
▁honour	-4992
▁interv	-4993
▁längst	-4994
▁mochte	-4995
▁recogn	-4996
▁rising	-4997
▁schloß	-4998
▁sowohl	-4999
▁square	-5000
▁Advokat	-5001
▁Anstren	-5002
▁Freunde	-5003
▁Gouvern	-5004
▁Ljewins	-5005
▁Oudarde	-5006
▁Wohnung	-5007
▁dressed	-5008
▁further	-5009
▁impress	-5010
▁könnten	-5011
▁nämlich	-5012
▁pflegte	-5013
▁regular	-5014
▁scholar	-5015
▁sympath	-5016
▁unpleas	-5017
▁Freiheit	-5018
▁Gesichte	-5019
▁Oblonski	-5020
▁Swijasch	-5021
▁Yonville	-5022
▁contrary	-5023
▁distance	-5024
▁entrance	-5025
▁gefallen	-5026
▁glancing	-5027
▁handsome	-5028
▁laughing	-5029
▁manchmal	-5030
▁shoulder	-5031
▁trotzdem	-5032
▁ungefähr	-5033
▁zurückzu	-5034
lichkeiten	-5035
▁Gateshead	-5036
▁Plötzlich	-5037
▁carefully	-5038
▁afterwards	-5039
▁namentlich	-5040
▁Mittagessen	-5041
▁architecture	-5042
.]	-5043
,--	-5044
Don	-5045
Ihr	-5046
ags	-5047
bau	-5048
das	-5049
elm	-5050
han	-5051
mel	-5052
oes	-5053
pic	-5054
ppy	-5055
ron	-5056
▁Gä	-5057
▁Ph	-5058
▁XI	-5059
Dann	-5060
aded	-5061
ales	-5062
erne	-5063
igem	-5064
igor	-5065
inet	-5066
klär	-5067
rite	-5068
ugte	-5069
▁Bem	-5070
▁Nur	-5071
▁Rat	-5072
▁Tor	-5073
▁Wal	-5074
▁bas	-5075
▁bat	-5076
▁dom	-5077
▁erk	-5078
▁erl	-5079
▁laß	-5080
▁sky	-5081
▁sla	-5082
▁trü	-5083
▁unn	-5084
▁wet	-5085
▁wär	-5086
ament	-5087
aming	-5088
arrow	-5089
endid	-5090
mäßig	-5091
ories	-5092
rollo	-5093
stern	-5094
ächer	-5095
älter	-5096
üssel	-5097
ützen	-5098
▁Beam	-5099
▁Bein	-5100
▁Fall	-5101
▁Jung	-5102
▁Kauf	-5103
▁Lust	-5104
▁Nich	-5105
▁Tier	-5106
▁Werk	-5107
▁Wohl	-5108
▁berü	-5109
▁errö	-5110
▁schn	-5111
▁sorg	-5112
▁thir	-5113
anders	-5114
atures	-5115
chtete	-5116
diener	-5117
finite	-5118
immers	-5119
leidet	-5120
lovsky	-5121
mitted	-5122
zücken	-5123
▁Annas	-5124
▁Ihren	-5125
▁Inter	-5126
▁Maler	-5127
▁Manne	-5128
▁Never	-5129
▁Rouen	-5130
▁Still	-5131
▁These	-5132
▁apart	-5133
▁begin	-5134
▁begle	-5135
▁besaß	-5136
▁bound	-5137
▁class	-5138
▁conce	-5139
▁delic	-5140
▁eilig	-5141
▁frown	-5142
▁giebt	-5143
▁holen	-5144
▁immen	-5145
▁irrit	-5146
▁lower	-5147
▁music	-5148
▁occur	-5149
▁saßen	-5150
▁statt	-5151
▁third	-5152
attered	-5153
heureux	-5154
igungen	-5155
kürlich	-5156
ungslos	-5157
zwungen	-5158
▁Anfang	-5159
▁Einzel	-5160
▁Frollo	-5161
▁Geheim	-5162
▁Mannes	-5163
▁Spitze	-5164
▁bottom	-5165
▁demand	-5166
▁formed	-5167
▁horses	-5168
▁liegen	-5169
▁länger	-5170
▁motion	-5171
▁notice	-5172
▁render	-5173
▁soviel	-5174
▁summer	-5175
▁towers	-5176
▁waited	-5177
zwischen	-5178
▁Endlich	-5179
▁Tristan	-5180
▁Varenka	-5181
▁anderer	-5182
▁bildete	-5183
▁comfort	-5184
▁gedacht	-5185
▁gestern	-5186
▁hundert	-5187
▁jealous	-5188
▁matters	-5189
▁melanch	-5190
▁näherte	-5191
▁painter	-5192
▁peasant	-5193
▁resumed	-5194
▁schlief	-5195
▁schwarz	-5196
▁seufzte	-5197
▁unserer	-5198
▁written	-5199
▁ähnlich	-5200
▁übrigen	-5201
▁Anspruch	-5202
▁Lheureux	-5203
▁Nicholas	-5204
▁Zwischen	-5205
▁allerlei	-5206
▁sichtbar	-5207
▁verstand	-5208
wirtschaft	-5209
▁Hauptmann	-5210
▁Veslovsky	-5211
▁furchtbar	-5212
▁questions	-5213
▁relations	-5214
▁überzeugt	-5215
▁Verhältnis	-5216
▁Wirtschaft	-5217
▁unpleasant	-5218
▁disappeared	-5219
▁Wirklichkeit	-5220
▁außerordentlich	-5221
ED	-5222
St	-5223
cl	-5224
Ist	-5225
näd	-5226
ued	-5227
uhl	-5228
▁Et	-5229
▁Hü	-5230
▁Ir	-5231
▁Ma	-5232
▁wü	-5233
erie	-5234
hsky	-5235
ilet	-5236
itet	-5237
itzt	-5238
odol	-5239
oved	-5240
ship	-5241
stem	-5242
thor	-5243
ulen	-5244
vert	-5245
▁Col	-5246
▁Kan	-5247
▁Krä	-5248
▁Les	-5249
▁Mut	-5250
▁Ohr	-5251
▁Tau	-5252
▁Tee	-5253
▁Tit	-5254
▁Zus	-5255
▁ash	-5256
▁bur	-5257
▁fet	-5258
▁fly	-5259
▁hid	-5260
▁krä	-5261
▁rot	-5262
▁smo	-5263
▁tas	-5264
▁var	-5265
▁wit	-5266
▁übr	-5267
agten	-5268
akter	-5269
arily	-5270
cient	-5271
cript	-5272
gress	-5273
iegel	-5274
ießen	-5275
inkel	-5276
izing	-5277
lease	-5278
legte	-5279
order	-5280
ossen	-5281
stead	-5282
terte	-5283
theil	-5284
ublic	-5285
ünden	-5286
▁Bahn	-5287
▁Bert	-5288
▁Brot	-5289
▁Dach	-5290
▁Ehre	-5291
▁Eing	-5292
▁Guts	-5293
▁Häus	-5294
▁Lehr	-5295
▁Mean	-5296
▁Nase	-5297
▁Phil	-5298
▁Verw	-5299
▁Volk	-5300
▁Wand	-5301
▁bele	-5302
▁bill	-5303
▁chee	-5304
▁chem	-5305
▁educ	-5306
▁ener	-5307
▁furn	-5308
▁heir	-5309
▁link	-5310
▁move	-5311
▁shar	-5312
▁tort	-5313
▁tran	-5314
▁unex	-5315
▁unha	-5316
annten	-5317
forder	-5318
gefühl	-5319
haften	-5320
hstück	-5321
ically	-5322
isches	-5323
keeper	-5324
riffen	-5325
stairs	-5326
zeihen	-5327
äglich	-5328
▁Angst	-5329
▁Durch	-5330
▁Kamin	-5331
▁Kampf	-5332
▁Ohren	-5333
▁Parte	-5334
▁Pause	-5335
▁Rodol	-5336
▁Schwä	-5337
▁absch	-5338
▁armen	-5339
▁avoid	-5340
▁doesn	-5341
▁extra	-5342
▁knees	-5343
▁makes	-5344
▁oblig	-5345
▁rasch	-5346
▁reach	-5347
▁richt	-5348
▁schar	-5349
▁schwe	-5350
▁spite	-5351
▁stair	-5352
▁stolz	-5353
▁study	-5354
▁uneas	-5355
▁utter	-5356
▁wicht	-5357
auspiel	-5358
stellen	-5359
▁Kummer	-5360
▁Papier	-5361
▁Schick	-5362
▁Streit	-5363
▁appear	-5364
▁caused	-5365
▁größer	-5366
▁height	-5367
▁horror	-5368
▁houses	-5369
▁jemals	-5370
▁labour	-5371
▁latter	-5372
▁months	-5373
▁pulled	-5374
▁seized	-5375
▁setzen	-5376
▁sieben	-5377
▁spring	-5378
▁vielen	-5379
▁wouldn	-5380
indungen	-5381
▁Besides	-5382
▁Bettler	-5383
▁Dichter	-5384
▁Schmerz	-5385
▁Schritt	-5386
▁hierher	-5387
▁immense	-5388
▁kleines	-5389
▁officer	-5390
▁stellen	-5391
▁streets	-5392
▁unangen	-5393
▁zweiten	-5394
▁Gesichts	-5395
▁Kutscher	-5396
▁Rodolphe	-5397
▁Stimmung	-5398
▁Warjenka	-5399
▁acquaint	-5400
▁angenehm	-5401
▁charming	-5402
▁erzählte	-5403
▁heiligen	-5404
▁herunter	-5405
▁laughter	-5406
▁movement	-5407
▁religion	-5408
▁schienen	-5409
▁Entschluß	-5410
▁Meanwhile	-5411
▁condition	-5412
▁conscious	-5413
▁erreichen	-5414
▁existence	-5415
▁surprised	-5416
▁tenderness	-5417
▁unexpected	-5418
▁geschlossen	-5419
▁menschlichen	-5420
▁circumstances	-5421
▁unwillkürlich	-5422
▁verschiedenen	-5423
yl	-5424
öh	-5425
Let	-5426
ehr	-5427
het	-5428
hor	-5429
how	-5430
laß	-5431
lli	-5432
mor	-5433
noc	-5434
rag	-5435
uge	-5436
uit	-5437
vet	-5438
viy	-5439
ßig	-5440
äum	-5441
▁Ro	-5442
▁Su	-5443
This	-5444
abel	-5445
aked	-5446
asov	-5447
aßte	-5448
cked	-5449
ends	-5450
fast	-5451
fted	-5452
jest	-5453
lage	-5454
nern	-5455
ries	-5456
seit	-5457
teid	-5458
uted	-5459
utet	-5460
wärt	-5461
ärte	-5462
▁Ben	-5463
▁Can	-5464
▁Eif	-5465
▁Klo	-5466
▁Lam	-5467
▁Lin	-5468
▁Lud	-5469
▁Min	-5470
▁Neu	-5471
▁Pol	-5472
▁Sta	-5473
▁Who	-5474
▁ann	-5475
▁fun	-5476
▁por	-5477
▁sag	-5478
▁som	-5479
▁tau	-5480
▁tin	-5481
ality	-5482
anten	-5483
asons	-5484
elegr	-5485
icher	-5486
iting	-5487
light	-5488
mögen	-5489
ugier	-5490
unkte	-5491
viyaz	-5492
▁Bede	-5493
▁Bour	-5494
▁Dank	-5495
▁Doch	-5496
▁Fahr	-5497
▁Hemd	-5498
▁Holz	-5499
▁Komm	-5500
▁Lehn	-5501
▁Russ	-5502
▁Span	-5503
▁Tode	-5504
▁Vern	-5505
▁brow	-5506
▁cart	-5507
▁cost	-5508
▁draw	-5509
▁ears	-5510
▁früh	-5511
▁glän	-5512
▁grey	-5513
▁inte	-5514
▁line	-5515
▁lose	-5516
▁läßt	-5517
▁pack	-5518
▁pray	-5519
▁sett	-5520
▁zwöl	-5521
idence	-5522
itated	-5523
lauben	-5524
reißen	-5525
sinnig	-5526
uchten	-5527
willen	-5528
▁...«,	-5529
▁Bürst	-5530
▁Helen	-5531
▁Kreuz	-5532
▁Louis	-5533
▁Sinne	-5534
▁Wider	-5535
▁Woche	-5536
▁Zweck	-5537
▁agree	-5538
▁below	-5539
▁forth	-5540
▁freud	-5541
▁geste	-5542
▁grown	-5543
▁hinge	-5544
▁hurry	-5545
▁langu	-5546
▁maint	-5547
▁story	-5548
▁teeth	-5549
▁vague	-5550
▁verme	-5551
▁wagte	-5552
▁weiße	-5553
▁wollt	-5554
▁überw	-5555
gezogen	-5556
itation	-5557
merksam	-5558
ppenole	-5559
▁Alexis	-5560
▁Angekl	-5561
▁August	-5562
▁Jungen	-5563
▁Königs	-5564
▁Provin	-5565
▁Sviyaz	-5566
▁Temple	-5567
▁asking	-5568
▁bitten	-5569
▁closer	-5570
▁commun	-5571
▁depart	-5572
▁easily	-5573
▁health	-5574
▁kurzen	-5575
▁lustig	-5576
▁mutter	-5577
▁number	-5578
▁result	-5579
▁schuld	-5580
▁sighed	-5581
▁spoken	-5582
▁suffic	-5583
getreten	-5584
▁Arbeits	-5585
▁Begriff	-5586
▁Freuden	-5587
▁Gedächt	-5588
▁Haltung	-5589
▁Jacques	-5590
▁Society	-5591
▁accused	-5592
▁century	-5593
▁curious	-5594
▁discuss	-5595
▁ergriff	-5596
▁excited	-5597
▁forgive	-5598
▁journey	-5599
▁leaning	-5600
▁meeting	-5601
▁offered	-5602
▁pointed	-5603
▁service	-5604
▁triumph	-5605
▁verwand	-5606
ständlich	-5607
▁Kaufmann	-5608
▁Religion	-5609
▁Schulter	-5610
▁Weilchen	-5611
▁Wronskis	-5612
▁erwartet	-5613
▁früheren	-5614
▁gewissen	-5615
▁geöffnet	-5616
▁interess	-5617
▁occasion	-5618
▁pointing	-5619
▁prepared	-5620
▁surprise	-5621
▁vorwärts	-5622
▁wünschen	-5623
▁Coppenole	-5624
▁Krankheit	-5625
▁gerichtet	-5626
▁influence	-5627
▁notwendig	-5628
▁philosoph	-5629
▁situation	-5630
merksamkeit	-5631
▁Schauspiel	-5632
▁particular	-5633
▁vorsichtig	-5634
▁Beziehungen	-5635
▁verschwunden	-5636
▁Angelegenheit	-5637
Mr	-5638
▁ö	-5639
.−−	-5640
Den	-5641
ING	-5642
Not	-5643
act	-5644
ait	-5645
any	-5646
daß	-5647
det	-5648
ech	-5649
irr	-5650
omp	-5651
osp	-5652
rel	-5653
riz	-5654
ruh	-5655
umn	-5656
zog	-5657
zur	-5658
öre	-5659
▁Kä	-5660
▁tö	-5661
acle	-5662
akes	-5663
bell	-5664
case	-5665
fluß	-5666
folg	-5667
gypt	-5668
ingu	-5669
olog	-5670
orce	-5671
uchs	-5672
▁Dam	-5673
▁Kon	-5674
▁Mat	-5675
▁Mik	-5676
▁Pat	-5677
▁Que	-5678
▁Tat	-5679
▁Ung	-5680
▁Wel	-5681
▁ble	-5682
▁dam	-5683
▁dim	-5684
▁eif	-5685
▁equ	-5686
▁fit	-5687
▁mat	-5688
▁ren	-5689
▁tap	-5690
▁umf	-5691
▁unw	-5692
bares	-5693
ckten	-5694
clock	-5695
eilen	-5696
elten	-5697
ieten	-5698
iring	-5699
kunst	-5700
leben	-5701
olute	-5702
osite	-5703
osity	-5704
oused	-5705
right	-5706
teilt	-5707
tritt	-5708
ument	-5709
▁Aufg	-5710
▁Fein	-5711
▁Gatt	-5712
▁Gras	-5713
▁Laun	-5714
▁Lord	-5715
▁Mars	-5716
▁Sold	-5717
▁Virg	-5718
▁bild	-5719
▁died	-5720
▁flew	-5721
▁flie	-5722
▁gebe	-5723
▁gesp	-5724
▁hate	-5725
▁mußt	-5726
▁möge	-5727
▁path	-5728
▁pein	-5729
▁phys	-5730
▁plan	-5731
▁pros	-5732
▁purp	-5733
▁rain	-5734
▁resp	-5735
▁sang	-5736
▁shut	-5737
▁snow	-5738
▁vorn	-5739
▁wide	-5740
▁wirk	-5741
▁wret	-5742
avasov	-5743
mittel	-5744
rehens	-5745
teilen	-5746
worfen	-5747
ächter	-5748
üchtig	-5749
▁Binet	-5750
▁Jacob	-5751
▁Kreis	-5752
▁Lande	-5753
▁Reise	-5754
▁Salon	-5755
▁Sanct	-5756
▁Warum	-5757
▁Weile	-5758
▁angry	-5759
▁brief	-5760
▁denke	-5761
▁faces	-5762
▁fault	-5763
▁fully	-5764
▁green	-5765
▁knock	-5766
▁links	-5767
▁midst	-5768
▁mount	-5769
▁sahen	-5770
▁shirt	-5771
▁tower	-5772
▁yield	-5773
gesetzt	-5774
underte	-5775
zeugung	-5776
▁Blumen	-5777
▁Erklär	-5778
▁Fragen	-5779
▁Gefahr	-5780
▁Gesich	-5781
▁Gewohn	-5782
▁Lehrer	-5783
▁Weslow	-5784
▁Wetter	-5785
▁Wochen	-5786
▁Zeiten	-5787
▁extrem	-5788
▁forced	-5789
▁fortwä	-5790
▁fuhren	-5791
▁geheim	-5792
▁gently	-5793
▁gesund	-5794
▁nachzu	-5795
▁nannte	-5796
▁obwohl	-5797
▁single	-5798
▁terror	-5799
▁tongue	-5800
▁zweite	-5801
▁Student	-5802
▁curtain	-5803
▁dropped	-5804
▁falling	-5805
▁finster	-5806
▁laughed	-5807
▁lebhaft	-5808
▁moments	-5809
▁putting	-5810
▁receive	-5811
▁rechten	-5812
▁reichte	-5813
▁serious	-5814
▁suppose	-5815
▁tausend	-5816
▁telling	-5817
▁trocken	-5818
▁usually	-5819
▁village	-5820
▁zurecht	-5821
▁zwanzig	-5822
gestanden	-5823
▁Erregung	-5824
▁Geräusch	-5825
▁Geschäft	-5826
▁Mahiette	-5827
▁begannen	-5828
▁confused	-5829
▁darkness	-5830
▁deswegen	-5831
▁murmelte	-5832
▁splendid	-5833
▁Aufregung	-5834
▁Entsetzen	-5835
▁Entzücken	-5836
▁Frühstück	-5837
▁Katavasov	-5838
▁Schrecken	-5839
▁according	-5840
▁antworten	-5841
▁following	-5842
▁ärgerlich	-5843
licherweise	-5844
▁Sviyazhsky	-5845
▁Verbindung	-5846
▁aufmerksam	-5847
▁frightened	-5848
▁Schließlich	-5849
▁Verständnis	-5850
▁Einzelheiten	-5851
▁Leidenschaft	-5852
ki	-5853
mt	-5854
my	-5855
öm	-5856
▁2	-5857
abl	-5858
hay	-5859
hem	-5860
ify	-5861
lam	-5862
ned	-5863
ops	-5864
rik	-5865
äme	-5866
ève	-5867
Also	-5868
aces	-5869
acke	-5870
auen	-5871
awas	-5872
best	-5873
cell	-5874
dest	-5875
fiel	-5876
fäng	-5877
ilar	-5878
imal	-5879
iven	-5880
ißen	-5881
laub	-5882
ngel	-5883
rade	-5884
ragt	-5885
schn	-5886
uous	-5887
ußts	-5888
ören	-5889
▁Bal	-5890
▁Fin	-5891
▁Häl	-5892
▁Ros	-5893
▁arg	-5894
▁bon	-5895
▁deg	-5896
▁fat	-5897
▁hig	-5898
▁inf	-5899
▁kit	-5900
▁kre	-5901
▁lit	-5902
▁pop	-5903
▁row	-5904
▁sug	-5905
▁woo	-5906
There	-5907
allen	-5908
anach	-5909
anzös	-5910
eiter	-5911
ielte	-5912
ifice	-5913
iture	-5914
ousin	-5915
tence	-5916
ächst	-5917
ängst	-5918
ürtel	-5919
üssen	-5920
▁Antl	-5921
▁Fest	-5922
▁Heim	-5923
▁Hipp	-5924
▁Kanz	-5925
▁Knie	-5926
▁Schü	-5927
▁abge	-5928
▁allm	-5929
▁bemü	-5930
▁coat	-5931
▁denk	-5932
▁dish	-5933
▁dism	-5934
▁dust	-5935
▁ease	-5936
▁food	-5937
▁gate	-5938
▁gewä	-5939
▁grie	-5940
▁incl	-5941
▁kalt	-5942
▁mach	-5943
▁mere	-5944
▁pron	-5945
▁rise	-5946
▁sand	-5947
▁seek	-5948
▁sick	-5949
▁sole	-5950
▁verr	-5951
▁walk	-5952
▁ways	-5953
▁wein	-5954
anting	-5955
aufhör	-5956
denten	-5957
finden	-5958
fortun	-5959
haylov	-5960
icated	-5961
ickten	-5962
iction	-5963
ienced	-5964
illing	-5965
jenige	-5966
marsch	-5967
reffen	-5968
rocken	-5969
ushing	-5970
▁Beine	-5971
▁Bisch	-5972
▁Bäume	-5973
▁Ihrem	-5974
▁Löwen	-5975
▁Musik	-5976
▁Neben	-5977
▁Polly	-5978
▁Preis	-5979
▁Reims	-5980
▁Rubel	-5981
▁Samsa	-5982
▁anger	-5983
▁appar	-5984
▁begun	-5985
▁birds	-5986
▁bowed	-5987
▁broad	-5988
▁chest	-5989
▁concl	-5990
▁frequ	-5991
▁grace	-5992
▁guter	-5993
▁höher	-5994
▁intim	-5995
▁küßte	-5996
▁month	-5997
▁river	-5998
▁seven	-5999
▁shout	-6000
▁trans	-6001
▁weary	-6002
▁wrote	-6003
▁wären	-6004
erdings	-6005
ishment	-6006
reichen	-6007
ußtsein	-6008
▁Besond	-6009
▁Bilder	-6010
▁France	-6011
▁Ludwig	-6012
▁Rivers	-6013
▁Winkel	-6014
▁Wissen	-6015
▁Wunder	-6016
▁advice	-6017
▁besten	-6018
▁ceased	-6019
▁common	-6020
▁deinem	-6021
▁destro	-6022
▁excite	-6023
▁gethan	-6024
▁gewalt	-6025
▁golden	-6026
▁helfen	-6027
▁indiff	-6028
▁inform	-6029
▁lauter	-6030
▁lehnte	-6031
▁leiser	-6032
▁mitten	-6033
▁paused	-6034
▁persön	-6035
▁possib	-6036
▁public	-6037
▁pushed	-6038
▁recoll	-6039
▁redete	-6040
▁remain	-6041
▁remark	-6042
▁remind	-6043
▁sagten	-6044
▁selten	-6045
▁sorrow	-6046
▁vergnü	-6047
▁verurs	-6048
▁ziehen	-6049
atürlich	-6050
gelassen	-6051
▁Katawas	-6052
▁Nachbar	-6053
▁Nothing	-6054
▁Pflicht	-6055
▁Rouault	-6056
▁Zukunft	-6057
▁befried	-6058
▁bekannt	-6059
▁bestand	-6060
▁chemist	-6061
▁consequ	-6062
▁details	-6063
▁divorce	-6064
▁edifice	-6065
▁eigenes	-6066
▁einiger	-6067
▁entlang	-6068
▁explain	-6069
▁französ	-6070
▁gallery	-6071
▁instead	-6072
▁kitchen	-6073
▁kleiner	-6074
▁konnten	-6075
▁möchten	-6076
▁quietly	-6077
▁reasons	-6078
▁schrieb	-6079
▁unhappy	-6080
▁verheir	-6081
▁verließ	-6082
▁working	-6083
sichtlich	-6084
▁Bürstner	-6085
▁anfangen	-6086
▁believed	-6087
▁coachman	-6088
▁creature	-6089
▁distingu	-6090
▁eingesch	-6091
▁entweder	-6092
▁erzählen	-6093
▁pavement	-6094
▁peasants	-6095
▁pleasant	-6096
▁schwarze	-6097
▁slightly	-6098
▁Bedeutung	-6099
▁Geheimnis	-6100
▁Mikhaylov	-6101
▁Schicksal	-6102
▁Studenten	-6103
▁Weslowski	-6104
▁suffering	-6105
▁Gedächtnis	-6106
▁melancholy	-6107
▁verschwand	-6108
▁verstanden	-6109
▁Anstrengung	-6110
▁businessman	-6111
▁entschieden	-6112
▁Aufmerksamkeit	-6113
Le	-6114
Un	-6115
bs	-6116
oc	-6117
Ver	-6118
ams	-6119
bon	-6120
cer	-6121
isa	-6122
log	-6123
mos	-6124
por	-6125
pte	-6126
rer	-6127
rif	-6128
tzt	-6129
urf	-6130
zut	-6131
▁Na	-6132
▁ga	-6133
▁na	-6134
▁Är	-6135
▁–«	-6136
arse	-6137
asen	-6138
bald	-6139
chan	-6140
edom	-6141
eral	-6142
fert	-6143
hood	-6144
iege	-6145
iner	-6146
ingt	-6147
omes	-6148
oose	-6149
oura	-6150
ples	-6151
quem	-6152
rait	-6153
rate	-6154
reut	-6155
riet	-6156
satz	-6157
ugen	-6158
usse	-6159
wirr	-6160
zust	-6161
änen	-6162
ären	-6163
▁Bel	-6164
▁Des	-6165
▁Ehr	-6166
▁Ern	-6167
▁Eur	-6168
▁Hor	-6169
▁Mir	-6170
▁Nor	-6171
▁Per	-6172
▁Sen	-6173
▁Sor	-6174
▁Two	-6175
▁Ven	-6176
▁awa	-6177
▁cru	-6178
▁fem	-6179
▁häß	-6180
▁mis	-6181
▁mut	-6182
▁tut	-6183
▁win	-6184
aches	-6185
arben	-6186
arrte	-6187
besch	-6188
cting	-6189
entüm	-6190
erken	-6191
erved	-6192
itary	-6193
kehrt	-6194
ortun	-6195
otion	-6196
raben	-6197
schlä	-6198
spiel	-6199
stell	-6200
usted	-6201
utete	-6202
▁Alte	-6203
▁Atem	-6204
▁Blut	-6205
▁Chor	-6206
▁Even	-6207
▁Form	-6208
▁From	-6209
▁Füße	-6210
▁Jagd	-6211
▁Mama	-6212
▁Name	-6213
▁Papa	-6214
▁Thus	-6215
▁Yash	-6216
▁amid	-6217
▁busy	-6218
▁dank	-6219
▁dick	-6220
▁eleg	-6221
▁enjo	-6222
▁entz	-6223
▁gnäd	-6224
▁gänz	-6225
▁heut	-6226
▁hide	-6227
▁merk	-6228
▁mill	-6229
▁ober	-6230
▁oper	-6231
▁rein	-6232
▁schü	-6233
▁song	-6234
▁stat	-6235
▁surr	-6236
▁vain	-6237
▁zärt	-6238
arcely	-6239
erecht	-6240
fällig	-6241
iculty	-6242
morrow	-6243
nungen	-6244
teenth	-6245
uchzen	-6246
zessin	-6247
▁Colon	-6248
▁Decke	-6249
▁Gebet	-6250
▁Zelle	-6251
▁aware	-6252
▁bekam	-6253
▁books	-6254
▁clock	-6255
▁doors	-6256
▁drugg	-6257
▁eight	-6258
▁embra	-6259
▁essen	-6260
▁guard	-6261
▁gutes	-6262
▁hinab	-6263
▁intro	-6264
▁looks	-6265
▁regel	-6266
▁shone	-6267
▁stick	-6268
▁sweet	-6269
▁union	-6270
▁zuvor	-6271
▁übrig	-6272
gemacht	-6273
jenigen	-6274
▁Befehl	-6275
▁Bücher	-6276
▁Bürger	-6277
▁Doktor	-6278
▁Eltern	-6279
▁Gemein	-6280
▁Hauses	-6281
▁Having	-6282
▁Justin	-6283
▁Lachen	-6284
▁Liebes	-6285
▁Schwei	-6286
▁Stille	-6287
▁advant	-6288
▁ausges	-6289
▁breast	-6290
▁deeply	-6291
▁deinen	-6292
▁estate	-6293
▁figure	-6294
▁gewiss	-6295
▁kehrte	-6296
▁lifted	-6297
▁minute	-6298
▁narrow	-6299
▁needed	-6300
▁prison	-6301
▁regret	-6302
▁seated	-6303
▁singen	-6304
▁strang	-6305
▁willen	-6306
▁wooden	-6307
athedral	-6308
zeichnet	-6309
▁Entfern	-6310
▁Kloster	-6311
▁Töchter	-6312
▁Yashvin	-6313
▁bemerkt	-6314
▁bending	-6315
▁brauche	-6316
▁closely	-6317
▁erhoben	-6318
▁gelegen	-6319
▁imagine	-6320
▁klopfte	-6321
▁liebens	-6322
▁meisten	-6323
▁mistake	-6324
▁passage	-6325
▁schaute	-6326
▁schwieg	-6327
▁schöner	-6328
▁someone	-6329
▁special	-6330
▁uttered	-6331
▁writing	-6332
▁überall	-6333
▁überras	-6334
▁Baukunst	-6335
▁Hinsicht	-6336
▁Philosop	-6337
▁Thatcher	-6338
▁accompan	-6339
▁dieselbe	-6340
▁druggist	-6341
▁features	-6342
▁fürchten	-6343
▁gathered	-6344
▁gehalten	-6345
▁intended	-6346
▁monsieur	-6347
▁portrait	-6348
▁progress	-6349
▁scarcely	-6350
▁somewhat	-6351
▁streckte	-6352
▁zurückge	-6353
▁Charakter	-6354
▁Michailow	-6355
▁education	-6356
▁erwartete	-6357
▁explained	-6358
▁generally	-6359
▁hurriedly	-6360
▁neighbour	-6361
▁stretched	-6362
▁versuchen	-6363
▁Alexandrov	-6364
▁Prinzessin	-6365
▁augenblick	-6366
▁besonderen	-6367
▁difficulty	-6368
▁interested	-6369
elegenheiten	-6370
▁Erscheinung	-6371
▁Gelegenheit	-6372
▁Universität	-6373
▁approaching	-6374
▁explanation	-6375
▁Überzeugung	-6376
▁Unterhaltung	-6377
▁Untersuchungs	-6378
At	-6379
io	-6380
mü	-6381
—"	-6382
abb	-6383
acy	-6384
asp	-6385
bat	-6386
bly	-6387
hed	-6388
imp	-6389
irm	-6390
jun	-6391
law	-6392
zha	-6393
▁XX	-6394
▁fi	-6395
▁lö	-6396
!...	-6397
anze	-6398
arsh	-6399
aunt	-6400
bing	-6401
cker	-6402
come	-6403
duce	-6404
falt	-6405
iete	-6406
inke	-6407
izon	-6408
ovna	-6409
pfel	-6410
rain	-6411
rass	-6412
raut	-6413
reat	-6414
reed	-6415
räng	-6416
schu	-6417
wind	-6418
with	-6419
zahl	-6420
äude	-6421
ütze	-6422
▁148	-6423
▁Car	-6424
▁Ide	-6425
▁Low	-6426
▁Mor	-6427
▁ach	-6428
▁bos	-6429
▁buy	-6430
▁eat	-6431
▁elb	-6432
▁fav	-6433
▁lot	-6434
▁neg	-6435
▁nod	-6436
▁prü	-6437
▁sea	-6438
▁sin	-6439
▁tum	-6440
▁vel	-6441
▁wes	-6442
ardon	-6443
arren	-6444
berry	-6445
ellen	-6446
hause	-6447
hüter	-6448
ierre	-6449
illef	-6450
itete	-6451
rated	-6452
schew	-6453
zende	-6454
▁Auff	-6455
▁Dorf	-6456
▁Duch	-6457
▁Feld	-6458
▁Fuße	-6459
▁Gren	-6460
▁Have	-6461
▁Heil	-6462
▁Lady	-6463
▁Noch	-6464
▁Only	-6465
▁Plan	-6466
▁Rock	-6467
▁Saal	-6468
▁Schö	-6469
▁Sitz	-6470
▁Vier	-6471
▁Wein	-6472
▁beab	-6473
▁bent	-6474
▁bess	-6475
▁brid	-6476
▁böse	-6477
▁coff	-6478
▁didn	-6479
▁duty	-6480
▁empt	-6481
▁flat	-6482
▁game	-6483
▁genü	-6484
▁maid	-6485
▁mitt	-6486
▁ones	-6487
▁pick	-6488
▁purs	-6489
▁reck	-6490
▁recl	-6491
▁repr	-6492
▁rust	-6493
▁samm	-6494
▁save	-6495
▁wann	-6496
▁wear	-6497
▁worn	-6498
andelt	-6499
ereien	-6500
erezha	-6501
hafter	-6502
haftig	-6503
laufen	-6504
zeitig	-6505
ückten	-6506
▁Bitte	-6507
▁Kerze	-6508
▁Leser	-6509
▁Schle	-6510
▁Sturm	-6511
▁Where	-6512
▁abend	-6513
▁allow	-6514
▁allzu	-6515
▁arbei	-6516
▁awful	-6517
▁gover	-6518
▁grand	-6519
▁ideas	-6520
▁incre	-6521
▁invol	-6522
▁könig	-6523
▁lebte	-6524
▁pause	-6525
▁proud	-6526
▁sanft	-6527
▁space	-6528
▁stern	-6529
▁stiff	-6530
▁vorge	-6531
▁yours	-6532
▁zwölf	-6533
ständen	-6534
uchtete	-6535
utation	-6536
▁Dieses	-6537
▁Erfolg	-6538
▁Galgen	-6539
▁Gattin	-6540
▁Gürtel	-6541
▁Kräfte	-6542
▁Könige	-6543
▁Robert	-6544
▁Tasche	-6545
▁Willem	-6546
▁Zauber	-6547
▁advent	-6548
▁artist	-6549
▁attent	-6550
▁aufger	-6551
▁beugte	-6552
▁contin	-6553
▁danach	-6554
▁driven	-6555
▁enclos	-6556
▁excell	-6557
▁feared	-6558
▁fühlen	-6559
▁gefaßt	-6560
▁großes	-6561
▁heißen	-6562
▁higher	-6563
▁kümmer	-6564
▁merely	-6565
▁pocket	-6566
▁prepar	-6567
▁silver	-6568
▁strugg	-6569
▁tiefer	-6570
▁verfol	-6571
▁öffnen	-6572
esterday	-6573
▁Herzens	-6574
▁Kindern	-6575
▁Königin	-6576
▁Nikolai	-6577
▁Schnell	-6578
▁Schwier	-6579
▁Schüler	-6580
▁Verkehr	-6581
▁begriff	-6582
▁burning	-6583
▁fürchte	-6584
▁geliebt	-6585
▁gewisse	-6586
▁handelt	-6587
▁learned	-6588
▁natural	-6589
▁obliged	-6590
▁process	-6591
▁settled	-6592
▁sterben	-6593
▁unerwar	-6594
▁weather	-6595
▁wünsche	-6596
einanders	-6597
losigkeit	-6598
wesenheit	-6599
▁Beschäft	-6600
▁Familien	-6601
▁Personen	-6602
▁Zusammen	-6603
▁bemerken	-6604
▁einziges	-6605
▁erklärte	-6606
▁fünfzehn	-6607
▁getragen	-6608
▁inquired	-6609
▁opposite	-6610
▁pictures	-6611
▁promised	-6612
▁schlafen	-6613
▁servants	-6614
▁sogleich	-6615
▁soldiers	-6616
▁unaufhör	-6617
▁vielmehr	-6618
▁visitors	-6619
▁wiederum	-6620
▁Erstaunen	-6621
▁Katawasow	-6622
▁beabsicht	-6623
▁breakfast	-6624
▁empfangen	-6625
▁entschuld	-6626
▁fürchtete	-6627
▁gezwungen	-6628
▁miserable	-6629
▁schreiben	-6630
▁staircase	-6631
▁trembling	-6632
▁Herrschaft	-6633
▁experience	-6634
▁freundlich	-6635
▁impression	-6636
▁Angeklagten	-6637
▁Swijaschski	-6638
▁experienced	-6639
▁Mademoiselle	-6640
▁acquaintance	-6641
▁entschlossen	-6642
▁gewöhnlichen	-6643
.)	-6644
AS	-6645
ES	-6646
Fr	-6647
OR	-6648
On	-6649
Re	-6650
ny	-6651
va	-6652
«.	-6653
▁Ö	-6654
Gew	-6655
Tom	-6656
aux	-6657
bew	-6658
cel	-6659
eds	-6660
erz	-6661
hie	-6662
iam	-6663
isk	-6664
nes	-6665
not	-6666
onc	-6667
ric	-6668
roh	-6669
rol	-6670
she	-6671
sie	-6672
sko	-6673
tee	-6674
zul	-6675
äub	-6676
ött	-6677
▁Gi	-6678
▁Mö	-6679
▁Sc	-6680
▁Vö	-6681
▁sü	-6682
abei	-6683
achs	-6684
ackt	-6685
andt	-6686
bahn	-6687
bart	-6688
bers	-6689
bret	-6690
hler	-6691
iber	-6692
inkt	-6693
jähr	-6694
mutz	-6695
ners	-6696
oint	-6697
oots	-6698
pend	-6699
phon	-6700
quis	-6701
tert	-6702
trat	-6703
umin	-6704
unes	-6705
weit	-6706
wick	-6707
wurf	-6708
wöhn	-6709
ände	-6710
ängt	-6711
ätze	-6712
çade	-6713
üsse	-6714
▁Bis	-6715
▁Did	-6716
▁Dre	-6717
▁Fir	-6718
▁Geh	-6719
▁Haß	-6720
▁Jul	-6721
▁Lau	-6722
▁Ort	-6723
▁Ren	-6724
▁Sol	-6725
▁Yet	-6726
▁Zug	-6727
▁Zum	-6728
▁aim	-6729
▁amb	-6730
▁asc	-6731
▁cro	-6732
▁erb	-6733
▁erf	-6734
▁fes	-6735
▁grä	-6736
▁hot	-6737
▁rob	-6738
▁suc	-6739
▁vex	-6740
▁Äuß	-6741
annen	-6742
antas	-6743
anzen	-6744
aschw	-6745
ative	-6746
chtes	-6747
enken	-6748
ettel	-6749
ettet	-6750
hlten	-6751
ieben	-6752
iesen	-6753
iliar	-6754
iling	-6755
itzer	-6756
ledge	-6757
onder	-6758
orted	-6759
otter	-6760
platz	-6761
ridor	-6762
rifft	-6763
stück	-6764
unday	-6765
undzw	-6766
ungsk	-6767
ähnen	-6768
ölker	-6769
örung	-6770
▁Baum	-6771
▁Denk	-6772
▁Dmit	-6773
▁Eben	-6774
▁Gast	-6775
▁Gemü	-6776
▁Kinn	-6777
▁Lärm	-6778
▁Prok	-6779
▁Schu	-6780
▁Seuf	-6781
▁Ufer	-6782
▁Vert	-6783
▁Zärt	-6784
▁chin	-6785
▁erwe	-6786
▁goat	-6787
▁hang	-6788
▁hist	-6789
▁höre	-6790
▁join	-6791
▁lebt	-6792
▁mild	-6793
▁neun	-6794
▁nine	-6795
▁pair	-6796
▁post	-6797
▁rang	-6798
▁sear	-6799
▁sech	-6800
▁suit	-6801
▁summ	-6802
▁traf	-6803
▁tree	-6804
bereit	-6805
ection	-6806
ferred	-6807
formed	-6808
ittern	-6809
kehren	-6810
leiden	-6811
lieder	-6812
ormous	-6813
zenden	-6814
ührung	-6815
ünftig	-6816
▁Alter	-6817
▁Begle	-6818
▁Block	-6819
▁Buche	-6820
▁Dabei	-6821
▁Eines	-6822
▁Engel	-6823
▁Falle	-6824
▁Frank	-6825
▁Grete	-6826
▁Gäste	-6827
▁Hügel	-6828
▁Laune	-6829
▁Munde	-6830
▁Punkt	-6831
▁Queen	-6832
▁Stahl	-6833
▁Those	-6834
▁Walde	-6835
▁While	-6836
▁Ziege	-6837
▁aband	-6838
▁attra	-6839
▁begrü	-6840
▁blind	-6841
▁colle	-6842
▁drive	-6843
▁drove	-6844
▁ended	-6845
▁entde	-6846
▁exist	-6847
▁faint	-6848
▁fancy	-6849
▁fühle	-6850
▁group	-6851
▁halte	-6852
▁heads	-6853
▁herbe	-6854
▁hoffe	-6855
▁impat	-6856
▁lagen	-6857
▁lofty	-6858
▁mache	-6859
▁marry	-6860
▁maybe	-6861
▁merry	-6862
▁pract	-6863
▁prote	-6864
▁reich	-6865
▁repro	-6866
▁rever	-6867
▁saved	-6868
▁waist	-6869
▁wants	-6870
▁älter	-6871
▁ängst	-6872
artigen	-6873
barrass	-6874
ificant	-6875
iration	-6876
leichen	-6877
teilung	-6878
unächst	-6879
änglich	-6880
▁Bemerk	-6881
▁Darauf	-6882
▁Gegend	-6883
▁Harper	-6884
▁Haufen	-6885
▁Haupte	-6886
▁Jaschw	-6887
▁Mantel	-6888
▁Mauern	-6889
▁Platze	-6890
▁Schlag	-6891
▁Sunday	-6892
▁Virgin	-6893
▁Willen	-6894
▁affair	-6895
▁arrest	-6896
▁assist	-6897
▁author	-6898
▁calcul	-6899
▁calmly	-6900
▁defend	-6901
▁degree	-6902
▁descri	-6903
▁desper	-6904
▁distra	-6905
▁distur	-6906
▁durfte	-6907
▁escape	-6908
▁firmly	-6909
▁frisch	-6910
▁gazing	-6911
▁grauen	-6912
▁halben	-6913
▁inside	-6914
▁keinem	-6915
▁resist	-6916
▁served	-6917
▁speech	-6918
▁stairs	-6919
▁suspic	-6920
▁thirty	-6921
▁tranqu	-6922
▁velvet	-6923
▁vollen	-6924
▁voller	-6925
▁Abreise	-6926
▁Duchess	-6927
▁Fremden	-6928
▁Himmels	-6929
▁Kleider	-6930
▁Serezha	-6931
▁Sprache	-6932
▁Stimmen	-6933
▁accompl	-6934
▁amongst	-6935
▁ancient	-6936
▁anxious	-6937
▁anybody	-6938
▁assumed	-6939
▁aufgere	-6940
▁counten	-6941
▁freedom	-6942
▁geführt	-6943
▁hübsche	-6944
▁instant	-6945
▁keeping	-6946
▁letters	-6947
▁liberty	-6948
▁parents	-6949
▁possess	-6950
▁provost	-6951
▁ridicul	-6952
▁showing	-6953
▁station	-6954
▁steckte	-6955
▁succeed	-6956
▁support	-6957
▁touched	-6958
▁travell	-6959
marschall	-6960
zustellen	-6961
▁Arbeiter	-6962
▁Fußboden	-6963
▁Herzogin	-6964
▁Iwanowna	-6965
▁Offizier	-6966
▁Vermögen	-6967
▁Verstand	-6968
▁arranged	-6969
▁carrying	-6970
▁enormous	-6971
▁extraord	-6972
▁formerly	-6973
▁gleicher	-6974
▁jedesmal	-6975
▁language	-6976
▁occurred	-6977
▁powerful	-6978
▁seltsame	-6979
▁strengen	-6980
▁trembled	-6981
▁verliebt	-6982
▁wiederzu	-6983
▁Übrigens	-6984
▁Interesse	-6985
▁Scheidung	-6986
▁begreifen	-6987
▁cathedral	-6988
▁concealed	-6989
▁gestorben	-6990
▁getroffen	-6991
▁irgendwel	-6992
▁possessed	-6993
▁presented	-6994
▁principal	-6995
▁satisfied	-6996
▁somewhere	-6997
▁Frankreich	-6998
▁Gewohnheit	-6999
▁astonished	-7000
▁excitement	-7001
▁motionless	-7002
▁Vorstellung	-7003
▁auseinander	-7004
▁beobachtete	-7005
▁fortwährend	-7006
▁beschäftigte	-7007
▁understanding	-7008
',	-7009
Be	-7010
Im	-7011
LL	-7012
di	-7013
gg	-7014
Per	-7015
asc	-7016
aya	-7017
bec	-7018
cur	-7019
eiß	-7020
ias	-7021
kte	-7022
las	-7023
liv	-7024
now	-7025
ruf	-7026
set	-7027
ulf	-7028
urz	-7029
vis	-7030
ère	-7031
ürz	-7032
▁Je	-7033
▁lä	-7034
Alex	-7035
aker	-7036
amps	-7037
bach	-7038
bern	-7039
blei	-7040
eign	-7041
hofe	-7042
hton	-7043
händ	-7044
ilty	-7045
ites	-7046
noon	-7047
obin	-7048
onds	-7049
pens	-7050
ppel	-7051
sher	-7052
this	-7053
uern	-7054
urie	-7055
urme	-7056
vere	-7057
wegs	-7058
äule	-7059
önte	-7060
ürzt	-7061
ützt	-7062
▁Ere	-7063
▁Gis	-7064
▁Jed	-7065
▁Kla	-7066
▁Maß	-7067
▁See	-7068
▁Sym	-7069
▁Vau	-7070
▁Wit	-7071
▁Wür	-7072
▁cup	-7073
▁dun	-7074
▁hes	-7075
▁org	-7076
▁pri	-7077
▁röm	-7078
▁tue	-7079
▁ven	-7080
Gewiß	-7081
Jetzt	-7082
Where	-7083
asped	-7084
astes	-7085
astic	-7086
asure	-7087
azier	-7088
berei	-7089
board	-7090
bsten	-7091
einst	-7092
eling	-7093
elled	-7094
ellos	-7095
fahrt	-7096
ftige	-7097
gerin	-7098
gment	-7099
ianer	-7100
ismus	-7101
known	-7102
oping	-7103
osten	-7104
ousse	-7105
penst	-7106
punkt	-7107
reden	-7108
udder	-7109
ügeln	-7110
▁Bene	-7111
▁Comm	-7112
▁Fing	-7113
▁Gree	-7114
▁Halb	-7115
▁Rath	-7116
▁Tepp	-7117
▁Toms	-7118
▁Trou	-7119
▁Wahl	-7120
▁Züge	-7121
▁arbe	-7122
▁caut	-7123
▁debt	-7124
▁devo	-7125
▁drän	-7126
▁düst	-7127
▁evil	-7128
▁exec	-7129
▁fool	-7130
▁froh	-7131
▁fröh	-7132
▁hohe	-7133
▁jack	-7134
▁magn	-7135
▁manu	-7136
▁mark	-7137
▁pour	-7138
▁quäl	-7139
▁rejo	-7140
▁rela	-7141
▁ruin	-7142
▁tick	-7143
▁twel	-7144
▁verz	-7145
▁wies	-7146
▁wine	-7147
▁wise	-7148
▁wozu	-7149
▁zier	-7150
brücke	-7151
chtern	-7152
ienten	-7153
ooting	-7154
orelli	-7155
reisen	-7156
schrei	-7157
wenden	-7158
üglich	-7159
▁Egypt	-7160
▁Emmas	-7161
▁Essen	-7162
▁Gelie	-7163
▁Grade	-7164
▁Kamer	-7165
▁Knien	-7166
▁Later	-7167
▁Masch	-7168
▁Reden	-7169
▁Sever	-7170
▁Somet	-7171
▁Sonnt	-7172
▁Tiefe	-7173
▁Ueber	-7174
▁Volke	-7175
▁Wicht	-7176
▁alarm	-7177
▁beard	-7178
▁defen	-7179
▁elder	-7180
▁etern	-7181
▁fifty	-7182
▁flung	-7183
▁lines	-7184
▁lover	-7185
▁party	-7186
▁pride	-7187
▁scene	-7188
▁shock	-7189
▁smoke	-7190
▁teach	-7191
▁trust	-7192
▁usher	-7193
▁value	-7194
▁verab	-7195
▁wings	-7196
▁worse	-7197
enntnis	-7198
gedacht	-7199
glichen	-7200
illefou	-7201
leberry	-7202
mädchen	-7203
ordnung	-7204
richten	-7205
schrift	-7206
ünstler	-7207
▁Eifers	-7208
▁Eshton	-7209
▁Hinder	-7210
▁Hälfte	-7211
▁Kammer	-7212
▁Kindes	-7213
▁Kittys	-7214
▁Kragen	-7215
▁Kriegs	-7216
▁Rechts	-7217
▁Schluß	-7218
▁Schnee	-7219
▁convin	-7220
▁daraus	-7221
▁double	-7222
▁einsam	-7223
▁fassen	-7224
▁fields	-7225
▁gelegt	-7226
▁guilty	-7227
▁heftig	-7228
▁humili	-7229
▁junger	-7230
▁kissed	-7231
▁laufen	-7232
▁leaves	-7233
▁mechan	-7234
▁nickte	-7235
▁nonsen	-7236
▁places	-7237
▁played	-7238
▁portal	-7239
▁retten	-7240
▁ruined	-7241
▁treten	-7242
▁voraus	-7243
▁wishes	-7244
entliche	-7245
schlagen	-7246
▁Anschau	-7247
▁Antlitz	-7248
▁Galerie	-7249
▁Grubach	-7250
▁Hippoly	-7251
▁Italien	-7252
▁Marshal	-7253
▁Niemand	-7254
▁Versamm	-7255
▁Versuch	-7256
▁Verteid	-7257
▁ashamed	-7258
▁attempt	-7259
▁bewegte	-7260
▁conduct	-7261
▁content	-7262
▁deliber	-7263
▁diesmal	-7264
▁disgust	-7265
▁doorway	-7266
▁dritten	-7267
▁erfüllt	-7268
▁fifteen	-7269
▁finding	-7270
▁gezogen	-7271
▁meaning	-7272
▁percept	-7273
▁promise	-7274
▁purpose	-7275
▁schwach	-7276
▁shaking	-7277
▁shudder	-7278
▁similar	-7279
▁sounded	-7280
▁spielen	-7281
entlichen	-7282
fortunate	-7283
▁Abschied	-7284
▁Altstadt	-7285
▁Benehmen	-7286
▁Constant	-7287
▁Karenina	-7288
▁Soldaten	-7289
▁außerdem	-7290
▁beginnen	-7291
▁brauchte	-7292
▁building	-7293
▁decision	-7294
▁dreadful	-7295
▁ertragen	-7296
▁freilich	-7297
▁fürchter	-7298
▁gelassen	-7299
▁gewisser	-7300
▁heiraten	-7301
▁muttered	-7302
▁noticing	-7303
▁opportun	-7304
▁resolved	-7305
▁schaffen	-7306
▁singular	-7307
▁suffered	-7308
▁superior	-7309
▁ungewöhn	-7310
▁watching	-7311
ischtschew	-7312
undzwanzig	-7313
▁Bekannten	-7314
▁Christian	-7315
▁Erklärung	-7316
▁Gegenteil	-7317
▁Gisquette	-7318
▁Rücksicht	-7319
▁besondere	-7320
▁bestimmte	-7321
▁descended	-7322
▁examining	-7323
▁expecting	-7324
▁governess	-7325
▁intervals	-7326
▁mentioned	-7327
▁verzeihen	-7328
▁yesterday	-7329
▁überlegen	-7330
▁Arkadjewna	-7331
▁Bewußtsein	-7332
▁Einsamkeit	-7333
▁Entfernung	-7334
▁Handlungen	-7335
▁Schluchzen	-7336
▁Wohnzimmer	-7337
▁angefangen	-7338
▁distinctly	-7339
▁doorkeeper	-7340
▁sufficient	-7341
▁surrounded	-7342
▁zusammenge	-7343
erechtigkeit	-7344
▁Constantine	-7345
▁Trouillefou	-7346
▁continually	-7347
▁countenance	-7348
▁menschliche	-7349
▁Nevertheless	-7350
▁extraordinary	-7351
▁schrecklichen	-7352
▁Landwirtschaft	-7353
▁augenscheinlich	-7354
Ch	-7355
_,	-7356
fs	-7357
lö	-7358
Mit	-7359
ara	-7360
bol	-7361
dre	-7362
ipe	-7363
iwa	-7364
kla	-7365
leg	-7366
min	-7367
mon	-7368
pet	-7369
pre	-7370
sah	-7371
val	-7372
âte	-7373
äck	-7374
ämt	-7375
äss	-7376
ätz	-7377
örm	-7378
öße	-7379
▁Gü	-7380
▁Rö	-7381
▁XV	-7382
▁fo	-7383
▁zä	-7384
▁–,	-7385
Anna	-7386
Huck	-7387
When	-7388
Your	-7389
aval	-7390
bill	-7391
chev	-7392
hend	-7393
herz	-7394
ials	-7395
igne	-7396
illy	-7397
inct	-7398
inte	-7399
komm	-7400
mete	-7401
otte	-7402
ours	-7403
pers	-7404
quet	-7405
road	-7406
ruhe	-7407
rupt	-7408
ränk	-7409
schm	-7410
than	-7411
welt	-7412
zend	-7413
ähne	-7414
▁Emp	-7415
▁Fab	-7416
▁Fig	-7417
▁Fäh	-7418
▁Gry	-7419
▁Kor	-7420
▁Met	-7421
▁Ruß	-7422
▁Vat	-7423
▁Wär	-7424
▁age	-7425
▁bir	-7426
▁bot	-7427
▁brü	-7428
▁fee	-7429
▁hit	-7430
▁mud	-7431
▁phr	-7432
▁pup	-7433
▁que	-7434
▁riß	-7435
▁rou	-7436
▁sac	-7437
▁ums	-7438
▁ung	-7439
▁vac	-7440
▁vol	-7441
anche	-7442
anges	-7443
arbei	-7444
bende	-7445
chant	-7446
essor	-7447
flich	-7448
hörte	-7449
ified	-7450
iform	-7451
ildet	-7452
ishop	-7453
itate	-7454
laubt	-7455
licht	-7456
nahme	-7457
necht	-7458
ounds	-7459
stuhl	-7460
ulted	-7461
using	-7462
which	-7463
zeigt	-7464
ämmer	-7465
ätter	-7466
ätzen	-7467
▁Aunt	-7468
▁Bald	-7469
▁Betr	-7470
▁Ding	-7471
▁Gele	-7472
▁Good	-7473
▁Hung	-7474
▁Lied	-7475
▁Park	-7476
▁Pers	-7477
▁Pont	-7478
▁Sain	-7479
▁Soll	-7480
▁Thor	-7481
▁Unbe	-7482
▁Ziel	-7483
▁alto	-7484
▁anst	-7485
▁bail	-7486
▁blaß	-7487
▁bush	-7488
▁chap	-7489
▁comb	-7490
▁dazz	-7491
▁dunk	-7492
▁fold	-7493
▁fond	-7494
▁goth	-7495
▁grim	-7496
▁gräß	-7497
▁größ	-7498
▁halt	-7499
▁hart	-7500
▁heiß	-7501
▁herz	-7502
▁hosp	-7503
▁jetz	-7504
▁lack	-7505
▁lamp	-7506
▁leid	-7507
▁ming	-7508
▁obst	-7509
▁plat	-7510
▁quit	-7511
▁ritt	-7512
▁sack	-7513
▁shop	-7514
▁slee	-7515
▁tiny	-7516
▁unab	-7517
▁vict	-7518
▁wahn	-7519
▁yell	-7520
▁zuge	-7521
freund	-7522
ftiger	-7523
iently	-7524
inchen	-7525
ischem	-7526
ivered	-7527
mittee	-7528
riften	-7529
ropfen	-7530
ternal	-7531
ächtig	-7532
ählich	-7533
▁Beide	-7534
▁Etwas	-7535
▁Geber	-7536
▁Grève	-7537
▁Katze	-7538
▁Nebel	-7539
▁Porte	-7540
▁Schlä	-7541
▁Stroh	-7542
▁Trotz	-7543
▁Zunge	-7544
▁admit	-7545
▁alive	-7546
▁beast	-7547
▁breit	-7548
▁cloak	-7549
▁ebens	-7550
▁einst	-7551
▁empty	-7552
▁envel	-7553
▁fetch	-7554
▁frock	-7555
▁klang	-7556
▁knife	-7557
▁könnt	-7558
▁legen	-7559
▁lives	-7560
▁nimmt	-7561
▁relig	-7562
▁resem	-7563
▁revol	-7564
▁shame	-7565
▁solch	-7566
▁stock	-7567
▁withd	-7568
▁write	-7569
antefle	-7570
brachte	-7571
ishchev	-7572
leidete	-7573
mission	-7574
tending	-7575
ustomed	-7576
wachsen	-7577
wirrung	-7578
▁Abends	-7579
▁Church	-7580
▁During	-7581
▁Erzähl	-7582
▁German	-7583
▁Glocke	-7584
▁Palast	-7585
▁Prokur	-7586
▁Schein	-7587
▁Schild	-7588
▁Thürme	-7589
▁Trauer	-7590
▁Verein	-7591
▁Vermut	-7592
▁Wolken	-7593
▁abroad	-7594
▁agreed	-7595
▁anyway	-7596
▁arches	-7597
▁attack	-7598
▁battle	-7599
▁beherr	-7600
▁beider	-7601
▁bequem	-7602
▁buried	-7603
▁choice	-7604
▁circle	-7605
▁coldly	-7606
▁düster	-7607
▁einzel	-7608
▁failed	-7609
▁findet	-7610
▁freien	-7611
▁gefähr	-7612
▁gloomy	-7613
▁heiter	-7614
▁herauf	-7615
▁hängen	-7616
▁häufig	-7617
▁inquir	-7618
▁killed	-7619
▁ladder	-7620
▁langer	-7621
▁majest	-7622
▁mußten	-7623
▁plough	-7624
▁rechts	-7625
▁scharf	-7626
▁shadow	-7627
▁siehst	-7628
▁sought	-7629
▁soweit	-7630
▁thanks	-7631
▁throng	-7632
▁tiefen	-7633
▁twelve	-7634
▁unless	-7635
▁verein	-7636
▁weinte	-7637
▁wheels	-7638
▁wohnen	-7639
jewitsch	-7640
onscious	-7641
scheiden	-7642
würdigen	-7643
ächtigen	-7644
▁Aufgabe	-7645
▁Beamten	-7646
▁England	-7647
▁Glauben	-7648
▁Schreck	-7649
▁Seufzer	-7650
▁Spazier	-7651
▁Thränen	-7652
▁Ursache	-7653
▁abgesch	-7654
▁angrily	-7655
▁bedeckt	-7656
▁brechen	-7657
▁confess	-7658
▁defence	-7659
▁desired	-7660
▁driving	-7661
▁escaped	-7662
▁farming	-7663
▁gewöhnt	-7664
▁glanced	-7665
▁handeln	-7666
▁hearing	-7667
▁hideous	-7668
▁illness	-7669
▁infolge	-7670
▁kingdom	-7671
▁lighted	-7672
▁mystery	-7673
▁patient	-7674
▁prevent	-7675
▁private	-7676
▁raising	-7677
▁recluse	-7678
▁seeking	-7679
▁sisters	-7680
▁slipped	-7681
▁spirits	-7682
▁torment	-7683
▁trinken	-7684
▁visible	-7685
▁wenigen	-7686
legenheit	-7687
zufrieden	-7688
▁Cardinal	-7689
▁Freundin	-7690
▁Indessen	-7691
▁Jaschwin	-7692
▁Türhüter	-7693
▁absolute	-7694
▁attitude	-7695
▁betrifft	-7696
▁delicate	-7697
▁director	-7698
▁dressing	-7699
▁entering	-7700
▁familiar	-7701
▁gelangte	-7702
▁gelaufen	-7703
▁gleichen	-7704
▁gänzlich	-7705
▁indessen	-7706
▁manufact	-7707
▁murmured	-7708
▁nonsense	-7709
▁produced	-7710
▁required	-7711
▁schickte	-7712
▁schweren	-7713
▁sympathy	-7714
▁vergeben	-7715
▁weakness	-7716
▁überdies	-7717
haftigkeit	-7718
▁Gegenwart	-7719
▁Gespräche	-7720
▁Kaninchen	-7721
▁Umständen	-7722
▁Vergangen	-7723
▁afternoon	-7724
▁anzusehen	-7725
▁comprehen	-7726
▁embarrass	-7727
▁empfunden	-7728
▁extremely	-7729
▁geschickt	-7730
▁intention	-7731
▁interests	-7732
▁irritated	-7733
▁perceived	-7734
▁pleasures	-7735
▁returning	-7736
▁seltsamen	-7737
▁verbunden	-7738
▁vermeiden	-7739
▁überlegte	-7740
antefleurie	-7741
▁Bewegungen	-7742
▁Verbrechen	-7743
▁Vielleicht	-7744
▁addressing	-7745
▁altogether	-7746
▁discovered	-7747
▁importance	-7748
▁lächerlich	-7749
▁ordentlich	-7750
▁reputation	-7751
▁zweifellos	-7752
▁überlassen	-7753
▁überrascht	-7754
elsmarschall	-7755
▁erschrocken	-7756
▁information	-7757
▁unterhalten	-7758
▁Empfindungen	-7759
▁Erinnerungen	-7760
▁Jahrhunderte	-7761
▁Zärtlichkeit	-7762
▁indifference	-7763
▁unaufhörlich	-7764
▁Golenischtschew	-7765
By	-7766
CH	-7767
De	-7768
Of	-7769
Qu	-7770
To	-7771
ßj	-7772
äs	-7773
Auf	-7774
Did	-7775
III	-7776
Wel	-7777
arb	-7778
aur	-7779
bet	-7780
eut	-7781
fäh	-7782
glo	-7783
kos	-7784
lin	-7785
omy	-7786
pit	-7787
raf	-7788
ube	-7789
ums	-7790
upf	-7791
wes	-7792
zwe	-7793
ürr	-7794
üss	-7795
▁Ed	-7796
▁Ha	-7797
▁Of	-7798
▁Pa	-7799
▁Sy	-7800
▁Vo	-7801
▁od	-7802
▁sy	-7803
Dies	-7804
Gott	-7805
Hall	-7806
Here	-7807
Herr	-7808
Sehr	-7809
ades	-7810
akon	-7811
alte	-7812
aman	-7813
ancy	-7814
ankt	-7815
arte	-7816
atis	-7817
auch	-7818
aume	-7819
aved	-7820
coat	-7821
dert	-7822
drei	-7823
erto	-7824
evna	-7825
geiz	-7826
gesp	-7827
heil	-7828
illi	-7829
ivil	-7830
kaja	-7831
kely	-7832
ller	-7833
long	-7834
nest	-7835
olue	-7836
oped	-7837
orts	-7838
osef	-7839
oute	-7840
pain	-7841
raum	-7842
udes	-7843
umme	-7844
upid	-7845
urke	-7846
wohn	-7847
ßjat	-7848
▁Adj	-7849
▁Beh	-7850
▁Dem	-7851
▁Dol	-7852
▁Eis	-7853
▁Get	-7854
▁Heu	-7855
▁Hof	-7856
▁Kom	-7857
▁Mas	-7858
▁Ruh	-7859
▁Sil	-7860
▁Uns	-7861
▁Zur	-7862
▁ack	-7863
▁bog	-7864
▁cla	-7865
▁doc	-7866
▁env	-7867
▁fac	-7868
▁hay	-7869
▁job	-7870
▁kna	-7871
▁käm	-7872
▁lod	-7873
▁nir	-7874
▁rul	-7875
▁sne	-7876
▁wax	-7877
▁wed	-7878
Thank	-7879
ancer	-7880
arted	-7881
artig	-7882
asing	-7883
attet	-7884
atzen	-7885
barer	-7886
brett	-7887
byess	-7888
chair	-7889
chern	-7890
eline	-7891
etten	-7892
euten	-7893
haben	-7894
holen	-7895
ieber	-7896
igned	-7897
mosph	-7898
neten	-7899
otted	-7900
reckt	-7901
reite	-7902
rival	-7903
ränkt	-7904
seite	-7905
stein	-7906
treff	-7907
usten	-7908
vache	-7909
woman	-7910
ütter	-7911
▁Auft	-7912
▁Bast	-7913
▁Beim	-7914
▁Come	-7915
▁Eliz	-7916
▁Goth	-7917
▁Heir	-7918
▁Kais	-7919
▁Kaum	-7920
▁Last	-7921
▁Merk	-7922
▁Moor	-7923
▁More	-7924
▁Ohne	-7925
▁Oper	-7926
▁Pres	-7927
▁Reit	-7928
▁Reiz	-7929
▁Sand	-7930
▁Schm	-7931
▁Ster	-7932
▁cher	-7933
▁engl	-7934
▁enth	-7935
▁fate	-7936
▁fish	-7937
▁grat	-7938
▁hers	-7939
▁hith	-7940
▁holl	-7941
▁host	-7942
▁hurt	-7943
▁hält	-7944
▁knee	-7945
▁kost	-7946
▁lach	-7947
▁leer	-7948
▁leis	-7949
▁letz	-7950
▁mood	-7951
▁mult	-7952
▁qual	-7953
▁rare	-7954
▁rate	-7955
▁ries	-7956
▁roof	-7957
▁stro	-7958
▁thut	-7959
▁vast	-7960
▁virt	-7961
▁wund	-7962
artige	-7963
assion	-7964
dienst	-7965
eignet	-7966
elling	-7967
estern	-7968
fectly	-7969
gelegt	-7970
grunde	-7971
ilette	-7972
iments	-7973
ounted	-7974
ration	-7975
reiten	-7976
rennen	-7977
ritsky	-7978
schten	-7979
seitig	-7980
straße	-7981
stücke	-7982
täusch	-7983
umbled	-7984
völker	-7985
▁Alten	-7986
▁Außer	-7987
▁Bette	-7988
▁Bogen	-7989
▁Charm	-7990
▁Eigen	-7991
▁Ferne	-7992
▁Fisch	-7993
▁Höhle	-7994
▁Immer	-7995
▁Injun	-7996
▁Kälte	-7997
▁Lager	-7998
▁Lampe	-7999
▁Pfört	-8000
▁Place	-8001
▁Robin	-8002
▁Rosam	-8003
▁Schon	-8004
▁Spitz	-8005
▁Stolz	-8006
▁Strem	-8007
▁Thüre	-8008
▁Usher	-8009
▁Vögel	-8010
▁ansch	-8011
▁aside	-8012
▁badly	-8013
▁begeg	-8014
▁blame	-8015
▁boots	-8016
▁bride	-8017
▁catch	-8018
▁cheek	-8019
▁conve	-8020
▁corre	-8021
▁dauer	-8022
▁drunk	-8023
▁dunkl	-8024
▁eager	-8025
▁erfre	-8026
▁false	-8027
▁frame	-8028
▁griff	-8029
▁kennt	-8030
▁liebt	-8031
▁mercy	-8032
▁names	-8033
▁neues	-8034
▁plate	-8035
▁roofs	-8036
▁rooms	-8037
▁sharp	-8038
▁shown	-8039
▁sides	-8040
▁spend	-8041
▁train	-8042
▁trick	-8043
▁unbed	-8044
▁whist	-8045
▁zogen	-8046
ceiving	-8047
cherbat	-8048
fenster	-8049
fängnis	-8050
gerufen	-8051
irektor	-8052
isation	-8053
steigen	-8054
unehmen	-8055
zeihung	-8056
▁Arkady	-8057
▁Deßjat	-8058
▁Donner	-8059
▁Einige	-8060
▁Erfahr	-8061
▁Großen	-8062
▁Kasten	-8063
▁Millco	-8064
▁Miller	-8065
▁Nichts	-8066
▁Partei	-8067
▁Pierre	-8068
▁Potter	-8069
▁Rennen	-8070
▁Sachen	-8071
▁Scherz	-8072
▁Schnur	-8073
▁Schutz	-8074
▁Sessel	-8075
▁Strick	-8076
▁Urteil	-8077
▁Vorder	-8078
▁abrupt	-8079
▁acknow	-8080
▁action	-8081
▁auszus	-8082
▁brilli	-8083
▁collar	-8084
▁consol	-8085
▁depths	-8086
▁eating	-8087
▁erfuhr	-8088
▁fasten	-8089
▁gelang	-8090
▁geschm	-8091
▁gewohn	-8092
▁honest	-8093
▁indign	-8094
▁intent	-8095
▁joined	-8096
▁jumped	-8097
▁junges	-8098
▁kalten	-8099
▁kurzem	-8100
▁lachen	-8101
▁lernen	-8102
▁likely	-8103
▁orders	-8104
▁points	-8105
▁powers	-8106
▁prayer	-8107
▁proper	-8108
▁rechte	-8109
▁refres	-8110
▁sauber	-8111
▁selber	-8112
▁solemn	-8113
▁sollst	-8114
▁uneasy	-8115
▁ungehe	-8116
▁verbre	-8117
▁vergaß	-8118
▁verwir	-8119
▁weitem	-8120
▁whence	-8121
byessard	-8122
gerissen	-8123
ichteten	-8124
reiflich	-8125
sinnigen	-8126
▁Blicken	-8127
▁Gebäude	-8128
▁Glocken	-8129
▁Gutsbes	-8130
▁Ivanich	-8131
▁Monaten	-8132
▁Rußland	-8133
▁Umstand	-8134
▁Vorwurf	-8135
▁Zimmers	-8136
▁ansehen	-8137
▁arrival	-8138
▁ausgest	-8139
▁bedroom	-8140
▁besteht	-8141
▁bewegen	-8142
▁capital	-8143
▁careful	-8144
▁dauerte	-8145
▁despite	-8146
▁dragged	-8147
▁einigen	-8148
▁engaged	-8149
▁ernsten	-8150
▁figures	-8151
▁fremden	-8152
▁frische	-8153
▁gehörte	-8154
▁gelangt	-8155
▁geraten	-8156
▁gesture	-8157
▁greater	-8158
▁hielten	-8159
▁mißbill	-8160
▁mächtig	-8161
▁nachden	-8162
▁nirgend	-8163
▁opening	-8164
▁ordered	-8165
▁perfect	-8166
▁reality	-8167
▁removed	-8168
▁schwere	-8169
▁seitdem	-8170
▁society	-8171
▁sorgsam	-8172
▁spricht	-8173
▁stepped	-8174
▁stillen	-8175
▁strenge	-8176
▁suggest	-8177
▁treffen	-8178
▁täglich	-8179
▁univers	-8180
▁unseren	-8181
▁various	-8182
▁versich	-8183
▁wieviel	-8184
▁willing	-8185
▁wishing	-8186
icherheit	-8187
▁Besucher	-8188
▁Eintritt	-8189
▁Gewissen	-8190
▁Ivanovna	-8191
▁Pflaster	-8192
▁arbeiten	-8193
▁aufrecht	-8194
▁bedeckte	-8195
▁behalten	-8196
▁beschloß	-8197
▁brauchen	-8198
▁continue	-8199
▁corridor	-8200
▁definite	-8201
▁eigentüm	-8202
▁erinnern	-8203
▁errötete	-8204
▁erstaunt	-8205
▁friendly	-8206
▁geglaubt	-8207
▁gelangen	-8208
▁gerettet	-8209
▁hitherto	-8210
▁horrible	-8211
▁instinct	-8212
▁irgendwo	-8213
▁leichter	-8214
▁magnific	-8215
▁mistaken	-8216
▁mistress	-8217
▁official	-8218
▁platform	-8219
▁pressing	-8220
▁prospect	-8221
▁recalled	-8222
▁reminded	-8223
▁sentence	-8224
▁upstairs	-8225
▁verlegen	-8226
▁verstumm	-8227
▁versucht	-8228
▁vortreff	-8229
▁übrigens	-8230
verstanden	-8231
▁Charmolue	-8232
▁Schlüssel	-8233
▁Shcherbat	-8234
▁Titorelli	-8235
▁addressed	-8236
▁beruhigen	-8237
▁concerned	-8238
▁denselben	-8239
▁folgenden	-8240
▁furniture	-8241
▁gehandelt	-8242
▁geheimnis	-8243
▁gekleidet	-8244
▁geringste	-8245
▁movements	-8246
▁schlechte	-8247
▁schlimmer	-8248
▁schnellen	-8249
▁vergangen	-8250
▁verlangen	-8251
▁Baumeister	-8252
▁Dunkelheit	-8253
▁Eifersucht	-8254
▁Inzwischen	-8255
▁Schwestern	-8256
▁angenommen	-8257
▁beobachtet	-8258
▁pronounced	-8259
▁ridiculous	-8260
▁schweigend	-8261
▁unangenehm	-8262
einandersetz	-8263
▁Gegenstände	-8264
▁Jahrhundert	-8265
▁Vaubyessard	-8266
▁schrecklich	-8267
▁unglücklich	-8268
▁Frauenzimmer	-8269
▁Golenishchev	-8270
▁Verhältnisse	-8271
▁Wissenschaft	-8272
▁aufgestanden	-8273
▁Vergangenheit	-8274
▁Gerichtsdiener	-8275
▁Angelegenheiten	-8276
▁Auseinandersetz	-8277
).	-8278
6.	-8279
AN	-8280
IS	-8281
IT	-8282
je	-8283
sm	-8284
yr	-8285
~,	-8286
--'	-8287
Are	-8288
For	-8289
Man	-8290
Nur	-8291
ape	-8292
ark	-8293
baz	-8294
beg	-8295
bot	-8296
erc	-8297
hab	-8298
ico	-8299
iew	-8300
iod	-8301
met	-8302
mte	-8303
olt	-8304
oom	-8305
oop	-8306
reu	-8307
ros	-8308
sth	-8309
upp	-8310
üne	-8311
▁"~	-8312
▁Ah	-8313
▁Bi	-8314
▁Di	-8315
▁Dr	-8316
▁Gu	-8317
▁Ke	-8318
▁Rä	-8319
▁WH	-8320
▁di	-8321
▁ep	-8322
▁tu	-8323
▁zö	-8324
▁üb	-8325
?...	-8326
Eine	-8327
Hier	-8328
Just	-8329
Mich	-8330
aced	-8331
afja	-8332
agte	-8333
ames	-8334
atet	-8335
athe	-8336
bour	-8337
edem	-8338
eile	-8339
fäll	-8340
gius	-8341
idel	-8342
iedr	-8343
isha	-8344
just	-8345
kers	-8346
llos	-8347
ooth	-8348
rist	-8349
röte	-8350
stag	-8351
they	-8352
ults	-8353
unch	-8354
usen	-8355
walt	-8356
wenn	-8357
wyer	-8358
zing	-8359
züge	-8360
▁,,'	-8361
▁Amt	-8362
▁Any	-8363
▁Bra	-8364
▁Com	-8365
▁Daß	-8366
▁Eig	-8367
▁Ell	-8368
▁Erk	-8369
▁Ihm	-8370
▁Jan	-8371
▁Kno	-8372
▁Lat	-8373
▁Med	-8374
▁Pok	-8375
▁Ruf	-8376
▁aid	-8377
▁dün	-8378
▁fei	-8379
▁lan	-8380
▁lav	-8381
▁obv	-8382
▁pin	-8383
ahmen	-8384
angel	-8385
annah	-8386
asses	-8387
aufte	-8388
ccles	-8389
eller	-8390
haber	-8391
house	-8392
igori	-8393
itive	-8394
laden	-8395
logen	-8396
loser	-8397
mauer	-8398
nerin	-8399
osing	-8400
rauch	-8401
reibt	-8402
ritte	-8403
rizki	-8404
skaya	-8405
sters	-8406
stieg	-8407
theid	-8408
umpen	-8409
unruh	-8410
urely	-8411
utzen	-8412
ärten	-8413
öhnen	-8414
▁Ball	-8415
▁Band	-8416
▁Bele	-8417
▁Brie	-8418
▁Chap	-8419
▁Dent	-8420
▁Dort	-8421
▁Drei	-8422
▁Euer	-8423
▁Glad	-8424
▁Hall	-8425
▁Heft	-8426
▁Henk	-8427
▁Idee	-8428
▁Kaff	-8429
▁Kost	-8430
▁Lauf	-8431
▁Leib	-8432
▁Mehr	-8433
▁Mess	-8434
▁Mitg	-8435
▁Oliv	-8436
▁Pred	-8437
▁Scht	-8438
▁Sorg	-8439
▁Tuch	-8440
▁Wert	-8441
▁Zaun	-8442
▁Zorn	-8443
▁aunt	-8444
▁blut	-8445
▁boot	-8446
▁card	-8447
▁cave	-8448
▁chim	-8449
▁cler	-8450
▁clim	-8451
▁curi	-8452
▁curr	-8453
▁dien	-8454
▁econ	-8455
▁ents	-8456
▁gerü	-8457
▁getr	-8458
▁huge	-8459
▁krie	-8460
▁käme	-8461
▁mead	-8462
▁mour	-8463
▁mürr	-8464
▁rubb	-8465
▁shel	-8466
▁silk	-8467
▁sobs	-8468
▁stol	-8469
▁stär	-8470
▁trot	-8471
▁wond	-8472
▁zeit	-8473
▁zorn	-8474
aglich	-8475
ahrung	-8476
dessen	-8477
esseln	-8478
flucht	-8479
führte	-8480
gliche	-8481
icious	-8482
ierten	-8483
macher	-8484
merzen	-8485
rified	-8486
ritten	-8487
stunde	-8488
teilte	-8489
ulated	-8490
wesend	-8491
ündete	-8492
▁Châte	-8493
▁Ehren	-8494
▁Ereig	-8495
▁Ernst	-8496
▁Fahrt	-8497
▁Feder	-8498
▁Feind	-8499
▁First	-8500
▁Frühl	-8501
▁Ganze	-8502
▁Georg	-8503
▁Greek	-8504
▁Größe	-8505
▁Junge	-8506
▁Klein	-8507
▁Küche	-8508
▁March	-8509
▁Meine	-8510
▁Pfund	-8511
▁Reich	-8512
▁Schuh	-8513
▁Staub	-8514
▁Thurm	-8515
▁Volks	-8516
▁Witwe	-8517
▁absor	-8518
▁achie	-8519
▁cases	-8520
▁caval	-8521
▁cough	-8522
▁curls	-8523
▁dance	-8524
▁delay	-8525
▁domin	-8526
▁dying	-8527
▁eilte	-8528
▁enjoy	-8529
▁erfol	-8530
▁feind	-8531
▁forty	-8532
▁freue	-8533
▁fruit	-8534
▁fällt	-8535
▁fühlt	-8536
▁günst	-8537
▁hated	-8538
▁innoc	-8539
▁moder	-8540
▁moral	-8541
▁moust	-8542
▁müßte	-8543
▁neuer	-8544
▁noble	-8545
▁parts	-8546
▁plötz	-8547
▁shoes	-8548
▁slept	-8549
▁sorts	-8550
▁stead	-8551
▁stout	-8552
▁theat	-8553
▁tiefe	-8554
▁toler	-8555
▁trieb	-8556
▁vigor	-8557
▁worst	-8558
▁zöger	-8559
Perhaps	-8560
bleiben	-8561
blickte	-8562
brechen	-8563
dreißig	-8564
hundert	-8565
iteness	-8566
itution	-8567
laubnis	-8568
reicher	-8569
ustache	-8570
wendung	-8571
zeichen	-8572
zweifel	-8573
ächlich	-8574
äuschen	-8575
▁Agafja	-8576
▁Anhäng	-8577
▁Celine	-8578
▁Dmitri	-8579
▁Fabrik	-8580
▁Flucht	-8581
▁Flügel	-8582
▁Gatten	-8583
▁Geiste	-8584
▁Gesand	-8585
▁Gothic	-8586
▁Grisha	-8587
▁Hannah	-8588
▁Häuser	-8589
▁Jugend	-8590
▁Kleine	-8591
▁Knaben	-8592
▁Montag	-8593
▁Persön	-8594
▁Punkte	-8595
▁Sawyer	-8596
▁Sobald	-8597
▁Sorgen	-8598
▁Säulen	-8599
▁Telegr	-8600
▁Vaters	-8601
▁Verste	-8602
▁Wollen	-8603
▁animal	-8604
▁apolog	-8605
▁aspect	-8606
▁aussch	-8607
▁bleibt	-8608
▁bottle	-8609
▁bringt	-8610
▁career	-8611
▁carved	-8612
▁centre	-8613
▁chosen	-8614
▁clever	-8615
▁condem	-8616
▁crying	-8617
▁custom	-8618
▁determ	-8619
▁dining	-8620
▁dunkle	-8621
▁enthus	-8622
▁establ	-8623
▁excuse	-8624
▁extent	-8625
▁flight	-8626
▁griech	-8627
▁größte	-8628
▁halted	-8629
▁hassen	-8630
▁hastig	-8631
▁hatred	-8632
▁helped	-8633
▁hingen	-8634
▁hinten	-8635
▁hinweg	-8636
▁hoarse	-8637
▁insign	-8638
▁instru	-8639
▁küssen	-8640
▁liefen	-8641
▁lovely	-8642
▁manage	-8643
▁mental	-8644
▁nearer	-8645
▁nennen	-8646
▁nobles	-8647
▁passen	-8648
▁period	-8649
▁permit	-8650
▁reckon	-8651
▁rushed	-8652
▁season	-8653
▁softly	-8654
▁sombre	-8655
▁sprich	-8656
▁strich	-8657
▁stupid	-8658
▁summit	-8659
▁supper	-8660
▁tables	-8661
▁thrust	-8662
▁verlor	-8663
▁voices	-8664
▁Überle	-8665
atisfied	-8666
erstehen	-8667
getragen	-8668
scherbaz	-8669
sprechen	-8670
untarily	-8671
zunehmen	-8672
▁Another	-8673
▁Beifall	-8674
▁Blanche	-8675
▁Bruders	-8676
▁Bursche	-8677
▁Eingang	-8678
▁General	-8679
▁Grigori	-8680
▁Gryphon	-8681
▁Neugier	-8682
▁Stellen	-8683
▁Wasenka	-8684
▁Wechsel	-8685
▁actions	-8686
▁becomes	-8687
▁bemühte	-8688
▁beunruh	-8689
▁blushed	-8690
▁contact	-8691
▁courage	-8692
▁dennoch	-8693
▁efforts	-8694
▁eintrat	-8695
▁entreat	-8696
▁entsetz	-8697
▁erzählt	-8698
▁evident	-8699
▁fünfzig	-8700
▁gardens	-8701
▁gefällt	-8702
▁gleiche	-8703
▁glitter	-8704
▁gnädige	-8705
▁grausam	-8706
▁hinüber	-8707
▁justice	-8708
▁lantern	-8709
▁lautete	-8710
▁lightly	-8711
▁merrily	-8712
▁niedrig	-8713
▁painful	-8714
▁pillars	-8715
▁quarter	-8716
▁remains	-8717
▁ruhigen	-8718
▁schwier	-8719
▁solange	-8720
▁travers	-8721
▁ununter	-8722
▁weshalb	-8723
▁Auskunft	-8724
▁Ellbogen	-8725
▁Geschöpf	-8726
▁Jungfrau	-8727
▁Kleidung	-8728
▁Millcote	-8729
▁Mädchens	-8730
▁Obgleich	-8731
▁Rosamond	-8732
▁Vernunft	-8733
▁bedeutet	-8734
▁befanden	-8735
▁befindet	-8736
▁blickten	-8737
▁cardinal	-8738
▁demanded	-8739
▁einfache	-8740
▁everyone	-8741
▁forehead	-8742
▁hübschen	-8743
▁imagined	-8744
▁instance	-8745
▁jealousy	-8746
▁liebsten	-8747
▁ordinary	-8748
▁regarded	-8749
▁separate	-8750
▁somebody	-8751
▁throwing	-8752
▁wichtige	-8753
▁zunächst	-8754
▁zuweilen	-8755
Vielleicht	-8756
unddreißig	-8757
▁Erfahrung	-8758
▁Erlaubnis	-8759
▁Gefängnis	-8760
▁Geschäfts	-8761
▁Gesichter	-8762
▁abandoned	-8763
▁advantage	-8764
▁allgemein	-8765
▁aufstehen	-8766
▁connected	-8767
▁departure	-8768
▁destroyed	-8769
▁eintreten	-8770
▁enclosure	-8771
▁excellent	-8772
▁expressed	-8773
▁getrieben	-8774
▁möglichst	-8775
▁presently	-8776
▁sentiment	-8777
▁verändert	-8778
▁Everything	-8779
▁Gesichtern	-8780
▁Kinderfrau	-8781
▁Verwirrung	-8782
▁allmählich	-8783
▁beobachten	-8784
▁betrachten	-8785
▁conditions	-8786
▁friendship	-8787
▁maintained	-8788
▁remarkable	-8789
▁schlechten	-8790
▁Huckleberry	-8791
▁Wichtigkeit	-8792
▁comfortable	-8793
▁opportunity	-8794
▁possibility	-8795
▁unfortunate	-8796
▁wiederholen	-8797
▁Schlafzimmer	-8798
▁Schtscherbaz	-8799
▁gleichzeitig	-8800
▁leidenschaft	-8801
▁mademoiselle	-8802
▁manufacturer	-8803
▁nachdenklich	-8804
▁Beschäftigung	-8805
▁Chantefleurie	-8806
▁Gouvernements	-8807
▁gewissermaßen	-8808
▁zurückgekehrt	-8809
▁ununterbrochen	-8810
▁schlechterdings	-8811
Ad	-8812
Et	-8813
Go	-8814
Ne	-8815
OM	-8816
RE	-8817
bü	-8818
mä	-8819
wl	-8820
yp	-8821
zy	-8822
äb	-8823
Bec	-8824
Can	-8825
Laß	-8826
ONS	-8827
One	-8828
aid	-8829
bey	-8830
can	-8831
cle	-8832
don	-8833
hes	-8834
isc	-8835
kow	-8836
lad	-8837
lde	-8838
oor	-8839
pro	-8840
rem	-8841
sed	-8842
tle	-8843
umb	-8844
uße	-8845
yal	-8846
yle	-8847
ünf	-8848
ürf	-8849
▁AN	-8850
▁Hô	-8851
▁av	-8852
▁eg	-8853
▁ou	-8854
Herm	-8855
agne	-8856
ammt	-8857
aren	-8858
arya	-8859
atha	-8860
aust	-8861
bbed	-8862
bler	-8863
book	-8864
brot	-8865
bted	-8866
cart	-8867
enez	-8868
erem	-8869
erve	-8870
fach	-8871
fält	-8872
hall	-8873
hour	-8874
hten	-8875
iard	-8876
ires	-8877
ivid	-8878
lier	-8879
nade	-8880
ogel	-8881
ogly	-8882
ored	-8883
orgt	-8884
phen	-8885
raph	-8886
rein	-8887
rich	-8888
rien	-8889
rimm	-8890
rive	-8891
rows	-8892
räum	-8893
sion	-8894
swer	-8895
tell	-8896
tels	-8897
then	-8898
time	-8899
uded	-8900
ulse	-8901
unen	-8902
urns	-8903
verg	-8904
wege	-8905
wise	-8906
word	-8907
öpft	-8908
üben	-8909
ürte	-8910
▁146	-8911
▁Ank	-8912
▁Bef	-8913
▁Bek	-8914
▁Fer	-8915
▁Flä	-8916
▁Gev	-8917
▁Hen	-8918
▁Kal	-8919
▁Luk	-8920
▁Nap	-8921
▁New	-8922
▁Poo	-8923
▁Sau	-8924
▁Sop	-8925
▁Vin	-8926
▁WAS	-8927
▁add	-8928
▁bow	-8929
▁cop	-8930
▁dor	-8931
▁ere	-8932
▁ers	-8933
▁erz	-8934
▁imm	-8935
▁isn	-8936
▁obt	-8937
▁rib	-8938
▁scy	-8939
▁Ähn	-8940
Denis	-8941
abbit	-8942
acity	-8943
amped	-8944
andid	-8945
antic	-8946
ashed	-8947
blieb	-8948
bruch	-8949
chief	-8950
chtet	-8951
cking	-8952
coats	-8953
delle	-8954
endem	-8955
enkte	-8956
eping	-8957
erträ	-8958
halts	-8959
hness	-8960
ighed	-8961
isely	-8962
istes	-8963
ivity	-8964
kauft	-8965
kleid	-8966
kröte	-8967
oland	-8968
orous	-8969
oulin	-8970
ounce	-8971
peror	-8972
reppe	-8973
sence	-8974
terin	-8975
ustri	-8976
vings	-8977
ähten	-8978
ängel	-8979
▁Acht	-8980
▁Edel	-8981
▁Eile	-8982
▁Fluß	-8983
▁Gemä	-8984
▁Hast	-8985
▁Irrt	-8986
▁Oder	-8987
▁Psal	-8988
▁Renn	-8989
▁Rund	-8990
▁Snet	-8991
▁Stat	-8992
▁Städ	-8993
▁Town	-8994
▁Türe	-8995
▁Verd	-8996
▁Zuck	-8997
▁blow	-8998
▁bloß	-8999
▁bran	-9000
▁caus	-9001
▁ceil	-9002
▁enem	-9003
▁fail	-9004
▁fain	-9005
▁fier	-9006
▁frag	-9007
▁gefl	-9008
▁gefü	-9009
▁gets	-9010
▁inex	-9011
▁kill	-9012
▁main	-9013
▁nerv	-9014
▁news	-9015
▁nutz	-9016
▁nütz	-9017
▁onto	-9018
▁pure	-9019
▁race	-9020
▁rank	-9021
▁rapt	-9022
▁reiz	-9023
▁runz	-9024
▁sinn	-9025
▁skin	-9026
▁soil	-9027
▁soup	-9028
▁tail	-9029
▁thre	-9030
▁tram	-9031
▁unus	-9032
▁veil	-9033
▁vest	-9034
▁west	-9035
▁zahl	-9036
▁zerr	-9037
▁zuzu	-9038
angled	-9039
embers	-9040
enkten	-9041
erable	-9042
fehlen	-9043
gebung	-9044
gültig	-9045
hängen	-9046
intend	-9047
isible	-9048
oughly	-9049
sprach	-9050
stoute	-9051
upiter	-9052
wandte	-9053
weisen	-9054
worben	-9055
worten	-9056
ünscht	-9057
▁Anlaß	-9058
▁Eliza	-9059
▁Ersch	-9060
▁Gewiß	-9061
▁Gladi	-9062
▁Greif	-9063
▁Hence	-9064
▁Hölle	-9065
▁Indem	-9066
▁Jeder	-9067
▁Johns	-9068
▁Karls	-9069
▁Kinde	-9070
▁Klang	-9071
▁Klaus	-9072
▁Krieg	-9073
▁Laufe	-9074
▁Leibe	-9075
▁Markt	-9076
▁Milch	-9077
▁Pfeil	-9078
▁Revol	-9079
▁Schei	-9080
▁Stief	-9081
▁Stiwa	-9082
▁Tasse	-9083
▁Todes	-9084
▁Trost	-9085
▁Vogel	-9086
▁Winde	-9087
▁Wonne	-9088
▁Zügel	-9089
▁altes	-9090
▁assem	-9091
▁ausst	-9092
▁blank	-9093
▁bosom	-9094
▁brain	-9095
▁brave	-9096
▁brown	-9097
▁conqu	-9098
▁danke	-9099
▁dared	-9100
▁drang	-9101
▁eiser	-9102
▁elect	-9103
▁event	-9104
▁exerc	-9105
▁final	-9106
▁gates	-9107
▁gives	-9108
▁glory	-9109
▁honor	-9110
▁impro	-9111
▁labor	-9112
▁leant	-9113
▁marsh	-9114
▁mater	-9115
▁miles	-9116
▁mitzu	-9117
▁nennt	-9118
▁organ	-9119
▁press	-9120
▁roten	-9121
▁schme	-9122
▁schob	-9123
▁shake	-9124
▁share	-9125
▁spött	-9126
▁storm	-9127
▁twice	-9128
▁upset	-9129
▁vagab	-9130
▁views	-9131
▁weeks	-9132
▁öfter	-9133
Because	-9134
Hermite	-9135
curator	-9136
erinnen	-9137
etwegen	-9138
factory	-9139
geister	-9140
hielten	-9141
händler	-9142
ication	-9143
itating	-9144
iveness	-9145
lichten	-9146
obility	-9147
schritt	-9148
umbling	-9149
undheit	-9150
zimmers	-9151
zugehen	-9152
▁Agatha	-9153
▁Backen	-9154
▁Europe	-9155
▁Falten	-9156
▁Folgen	-9157
▁Ganzen	-9158
▁Gruppe	-9159
▁Henker	-9160
▁Hunger	-9161
▁Innern	-9162
▁Kaffee	-9163
▁Leiter	-9164
▁Lowood	-9165
▁Messer	-9166
▁Please	-9167
▁Pousse	-9168
▁Rabbit	-9169
▁Sainte	-9170
▁Sophie	-9171
▁Unsinn	-9172
▁Wangen	-9173
▁Wiesen	-9174
▁Zähnen	-9175
▁absent	-9176
▁accept	-9177
▁angele	-9178
▁bekomm	-9179
▁bought	-9180
▁cattle	-9181
▁column	-9182
▁cousin	-9183
▁eignen	-9184
▁endure	-9185
▁energy	-9186
▁ernste	-9187
▁events	-9188
▁falsch	-9189
▁fielen	-9190
▁finish	-9191
▁flower	-9192
▁flying	-9193
▁forest	-9194
▁freely	-9195
▁freute	-9196
▁geschw	-9197
▁gewußt	-9198
▁guests	-9199
▁hidden	-9200
▁incess	-9201
▁invent	-9202
▁kisses	-9203
▁körper	-9204
▁larger	-9205
▁lavish	-9206
▁lebend	-9207
▁lesson	-9208
▁loudly	-9209
▁manche	-9210
▁marble	-9211
▁modern	-9212
▁murmur	-9213
▁nodded	-9214
▁rannte	-9215
▁repeat	-9216
▁roused	-9217
▁rührte	-9218
▁schade	-9219
▁series	-9220
▁silber	-9221
▁smooth	-9222
▁social	-9223
▁stones	-9224
▁temper	-9225
▁thread	-9226
▁thrown	-9227
▁umring	-9228
▁unters	-9229
▁worked	-9230
cription	-9231
gefahren	-9232
ointment	-9233
pflaster	-9234
schieden	-9235
▁Adjunkt	-9236
▁Colonel	-9237
▁Empfang	-9238
▁Entwick	-9239
▁Italian	-9240
▁Laterne	-9241
▁Pariser	-9242
▁Phantas	-9243
▁Philipp	-9244
▁Rührung	-9245
▁Schnurr	-9246
▁Schrift	-9247
▁Sergius	-9248
▁Vasenka	-9249
▁absence	-9250
▁advance	-9251
▁alledem	-9252
▁bailiff	-9253
▁beendet	-9254
▁beständ	-9255
▁calling	-9256
▁ceiling	-9257
▁complex	-9258
▁drängte	-9259
▁earlier	-9260
▁emotion	-9261
▁ergeben	-9262
▁erzogen	-9263
▁flatter	-9264
▁foreign	-9265
▁gebeten	-9266
▁gesetzt	-9267
▁gezeigt	-9268
▁glances	-9269
▁größten	-9270
▁hanging	-9271
▁history	-9272
▁horchte	-9273
▁höchste	-9274
▁illumin	-9275
▁invited	-9276
▁knocked	-9277
▁landown	-9278
▁lessons	-9279
▁letzter	-9280
▁mehrere	-9281
▁prayers	-9282
▁privile	-9283
▁rapidly	-9284
▁rauchen	-9285
▁realize	-9286
▁repress	-9287
▁roubles	-9288
▁schlimm	-9289
▁schritt	-9290
▁schönes	-9291
▁singing	-9292
▁solches	-9293
▁spielte	-9294
▁stammer	-9295
▁starrte	-9296
▁stirred	-9297
▁stürzte	-9298
▁thereby	-9299
▁unerträ	-9300
▁wechsel	-9301
▁wendete	-9302
▁witness	-9303
▁ärgerte	-9304
Natürlich	-9305
ungskraft	-9306
▁Aussehen	-9307
▁Gevatter	-9308
▁Hochzeit	-9309
▁Indianer	-9310
▁Künstler	-9311
▁Schlacht	-9312
▁Schulden	-9313
▁Schwäche	-9314
▁Umstände	-9315
▁actually	-9316
▁advanced	-9317
▁agitated	-9318
▁anywhere	-9319
▁audience	-9320
▁beruhigt	-9321
▁changing	-9322
▁cheerful	-9323
▁cloister	-9324
▁displeas	-9325
▁erreicht	-9326
▁erworben	-9327
▁external	-9328
▁frequent	-9329
▁gebildet	-9330
▁gegessen	-9331
▁geistige	-9332
▁getreten	-9333
▁heftigen	-9334
▁hingehen	-9335
▁hospital	-9336
▁independ	-9337
▁leichten	-9338
▁realized	-9339
▁rejoined	-9340
▁schlagen	-9341
▁shooting	-9342
▁strahlen	-9343
▁subjects	-9344
▁threaten	-9345
▁touching	-9346
▁tranquil	-9347
▁troubles	-9348
▁unabhäng	-9349
▁verwirrt	-9350
▁wandered	-9351
▁wretched	-9352
geschlagen	-9353
rehensible	-9354
▁Bemerkung	-9355
▁Erzählung	-9356
▁Professor	-9357
▁Sometimes	-9358
▁Telegramm	-9359
▁Uebrigens	-9360
▁Verlangen	-9361
▁contained	-9362
▁curiosity	-9363
▁desperate	-9364
▁dieselben	-9365
▁gegenwärt	-9366
▁gemeinsam	-9367
▁hinfahren	-9368
▁invisible	-9369
▁irgendein	-9370
▁moustache	-9371
▁mächtigen	-9372
▁naturally	-9373
▁necessity	-9374
▁officials	-9375
▁perfectly	-9376
▁principle	-9377
▁proceeded	-9378
▁reflected	-9379
▁schließen	-9380
▁seltsamer	-9381
▁sensation	-9382
▁separated	-9383
▁seriously	-9384
▁sonderbar	-9385
▁spectacle	-9386
▁verhinder	-9387
▁vernehmen	-9388
▁versteckt	-9389
stouteville	-9390
▁Allerdings	-9391
▁Arkadyevna	-9392
▁Besonderes	-9393
▁Gesundheit	-9394
▁Poussepain	-9395
▁Rochesters	-9396
▁Sicherheit	-9397
▁Verzeihung	-9398
▁accustomed	-9399
▁appearance	-9400
▁compassion	-9401
▁difference	-9402
▁jedenfalls	-9403
▁passionate	-9404
▁resolution	-9405
▁university	-9406
▁vorzüglich	-9407
▁Anwesenheit	-9408
▁Mikhaylovna	-9409
▁Unterschied	-9410
▁absichtlich	-9411
▁considering	-9412
▁distinguish	-9413
▁eingetreten	-9414
▁interesting	-9415
▁magnificent	-9416
▁philosopher	-9417
▁versprochen	-9418
▁vorgenommen	-9419
▁Freundschaft	-9420
▁Gutsbesitzer	-9421
▁Universitäts	-9422
▁astonishment	-9423
▁gesellschaft	-9424
▁irgendwelche	-9425
▁nevertheless	-9426
▁unterdrücken	-9427
▁Alexandrovich	-9428
▁Gerechtigkeit	-9429
▁liebenswürdig	-9430
----------------	-9431
!)	-9432
3.	-9433
AD	-9434
AT	-9435
Ei	-9436
OT	-9437
RI	-9438
UR	-9439
dt	-9440
dy	-9441
ya	-9442
za	-9443
~.	-9444
üf	-9445
!−−	-9446
.‹«	-9447
:--	-9448
BAR	-9449
Für	-9450
Geh	-9451
Jac	-9452
aks	-9453
ali	-9454
aos	-9455
awl	-9456
bem	-9457
com	-9458
elz	-9459
hmt	-9460
hod	-9461
hum	-9462
ike	-9463
ilh	-9464
ips	-9465
iti	-9466
kew	-9467
lar	-9468
len	-9469
mäl	-9470
nam	-9471
neh	-9472
nut	-9473
ols	-9474
pap	-9475
rak	-9476
tin	-9477
ton	-9478
ugt	-9479
unz	-9480
who	-9481
äre	-9482
ärr	-9483
öck	-9484
öst	-9485
ümm	-9486
▁"_	-9487
▁Ae	-9488
▁En	-9489
▁Fa	-9490
▁TO	-9491
▁Tu	-9492
▁Tü	-9493
▁Wa	-9494
▁hü	-9495
▁nu	-9496
Halt	-9497
Have	-9498
Komm	-9499
Look	-9500
Sind	-9501
Very	-9502
With	-9503
adem	-9504
baum	-9505
bete	-9506
buch	-9507
cast	-9508
cill	-9509
denk	-9510
edge	-9511
ehme	-9512
enig	-9513
five	-9514
führ	-9515
gent	-9516
gern	-9517
iast	-9518
iday	-9519
iest	-9520
ills	-9521
imme	-9522
inus	-9523
irte	-9524
itor	-9525
jali	-9526
kens	-9527
klop	-9528
kten	-9529
lady	-9530
lder	-9531
legt	-9532
lzer	-9533
oben	-9534
ogue	-9535
olet	-9536
olgt	-9537
onen	-9538
ords	-9539
plic	-9540
rede	-9541
reib	-9542
rest	-9543
rose	-9544
schö	-9545
sery	-9546
sied	-9547
skis	-9548
stür	-9549
thal	-9550
thig	-9551
thin	-9552
ulpt	-9553
ulus	-9554
upon	-9555
ural	-9556
vich	-9557
work	-9558
yers	-9559
zier	-9560
ähen	-9561
ährt	-9562
ämen	-9563
äten	-9564
ätte	-9565
ösen	-9566
▁Bir	-9567
▁Brü	-9568
▁Cap	-9569
▁Dog	-9570
▁Ele	-9571
▁Fra	-9572
▁Gar	-9573
▁Geg	-9574
▁Gir	-9575
▁Hex	-9576
▁Mel	-9577
▁Our	-9578
▁Sat	-9579
▁Ter	-9580
▁ate	-9581
▁awk	-9582
▁bor	-9583
▁bun	-9584
▁cas	-9585
▁dav	-9586
▁dew	-9587
▁erm	-9588
▁för	-9589
▁gal	-9590
▁gep	-9591
▁gig	-9592
▁grü	-9593
▁ice	-9594
▁ink	-9595
▁kau	-9596
▁key	-9597
▁lei	-9598
▁lon	-9599
▁mur	-9600
▁pir	-9601
▁ray	-9602
▁sau	-9603
▁wag	-9604
▁wip	-9605
▁zah	-9606
Bitte	-9607
Haben	-9608
Meine	-9609
adies	-9610
ailed	-9611
ammte	-9612
aries	-9613
armor	-9614
artin	-9615
asted	-9616
eduld	-9617
ences	-9618
esses	-9619
esten	-9620
franc	-9621
fährt	-9622
gange	-9623
gänge	-9624
ichts	-9625
igger	-9626
istic	-9627
ittal	-9628
lesen	-9629
letzt	-9630
liebe	-9631
lungs	-9632
ooped	-9633
ossip	-9634
ourge	-9635
overn	-9636
place	-9637
pruch	-9638
reife	-9639
schle	-9640
schön	-9641
stone	-9642
teful	-9643
teile	-9644
unnen	-9645
usses	-9646
verse	-9647
wagen	-9648
wider	-9649
würfe	-9650
zweif	-9651
äudes	-9652
äumen	-9653
öhnte	-9654
ünder	-9655
▁1482	-9656
▁Finn	-9657
▁Flie	-9658
▁Grab	-9659
▁Groß	-9660
▁Inst	-9661
▁Kann	-9662
▁Lang	-9663
▁Lohn	-9664
▁Mort	-9665
▁Murm	-9666
▁Nord	-9667
▁Orte	-9668
▁Paar	-9669
▁Part	-9670
▁Pfle	-9671
▁Pisa	-9672
▁Pope	-9673
▁Post	-9674
▁Qual	-9675
▁Rech	-9676
▁Rett	-9677
▁Ring	-9678
▁Rome	-9679
▁Ruhm	-9680
▁Schr	-9681
▁Serp	-9682
▁Sire	-9683
▁Spar	-9684
▁Trib	-9685
▁Tsch	-9686
▁Verk	-9687
▁Voll	-9688
▁Vort	-9689
▁Wilh	-9690
▁Your	-9691
▁Zahn	-9692
▁aufr	-9693
▁beat	-9694
▁beds	-9695
▁bind	-9696
▁bite	-9697
▁born	-9698
▁butt	-9699
▁cook	-9700
▁cord	-9701
▁cott	-9702
▁dumm	-9703
▁dump	-9704
▁exch	-9705
▁fulf	-9706
▁gain	-9707
▁gaze	-9708
▁glor	-9709
▁gown	-9710
▁heed	-9711
▁hole	-9712
▁häuf	-9713
▁isol	-9714
▁jury	-9715
▁lace	-9716
▁lear	-9717
▁lift	-9718
▁milk	-9719
▁nois	-9720
▁puff	-9721
▁rote	-9722
▁scen	-9723
▁sche	-9724
▁sell	-9725
▁spot	-9726
▁stif	-9727
▁sähe	-9728
▁tale	-9729
▁tanz	-9730
▁thor	-9731
▁thro	-9732
▁toss	-9733
▁trap	-9734
▁vous	-9735
▁wach	-9736
▁wept	-9737
▁wick	-9738
Please	-9739
akonus	-9740
angeau	-9741
arbeit	-9742
athers	-9743
attete	-9744
bergen	-9745
bungen	-9746
cience	-9747
dually	-9748
fassen	-9749
finger	-9750
gendes	-9751
glocke	-9752
haftet	-9753
ickelt	-9754
inking	-9755
innung	-9756
itable	-9757
manden	-9758
nehmer	-9759
nisien	-9760
ograph	-9761
ordnet	-9762
reated	-9763
reiche	-9764
rested	-9765
riages	-9766
ringer	-9767
sachen	-9768
schuhe	-9769
thanen	-9770
utions	-9771
werden	-9772
wiesen	-9773
äuscht	-9774
ückend	-9775
ütlich	-9776
▁Again	-9777
▁Bauer	-9778
▁Bilde	-9779
▁Blatt	-9780
▁Einen	-9781
▁Einer	-9782
▁Felic	-9783
▁Freis	-9784
▁Freit	-9785
▁Grace	-9786
▁Hausk	-9787
▁House	-9788
▁Hunde	-9789
▁Hôtel	-9790
▁Knabe	-9791
▁Leich	-9792
▁Lesen	-9793
▁Mütze	-9794
▁Papst	-9795
▁Poole	-9796
▁Stell	-9797
▁Sumpf	-9798
▁Suppe	-9799
▁Theod	-9800
▁Toten	-9801
▁Tusch	-9802
▁Venus	-9803
▁Warte	-9804
▁Wolke	-9805
▁Zähne	-9806
▁amuse	-9807
▁apply	-9808
▁basin	-9809
▁betäu	-9810
▁birth	-9811
▁bliss	-9812
▁blows	-9813
▁bored	-9814
▁built	-9815
▁crime	-9816
▁decla	-9817
▁demon	-9818
▁denkt	-9819
▁disag	-9820
▁drops	-9821
▁dürfe	-9822
▁eaten	-9823
▁elbow	-9824
▁erect	-9825
▁expen	-9826
▁fahre	-9827
▁fever	-9828
▁gefür	-9829
▁gehor	-9830
▁gleam	-9831
▁halbe	-9832
▁hills	-9833
▁hoffn	-9834
▁hoped	-9835
▁instr	-9836
▁kings	-9837
▁klare	-9838
▁lamps	-9839
▁ledig	-9840
▁loszu	-9841
▁loves	-9842
▁lying	-9843
▁maman	-9844
▁natür	-9845
▁nehme	-9846
▁paces	-9847
▁pages	-9848
▁persu	-9849
▁phant	-9850
▁plans	-9851
▁polit	-9852
▁prove	-9853
▁reine	-9854
▁renew	-9855
▁roman	-9856
▁royal	-9857
▁rufen	-9858
▁sagst	-9859
▁shade	-9860
▁sheet	-9861
▁shrie	-9862
▁sitzt	-9863
▁smell	-9864
▁solid	-9865
▁stile	-9866
▁straw	-9867
▁stumm	-9868
▁style	-9869
▁trank	-9870
▁turns	-9871
▁unbeh	-9872
▁vault	-9873
▁verze	-9874
▁vorzu	-9875
▁widow	-9876
▁woods	-9877
▁wovon	-9878
▁wrath	-9879
▁youth	-9880
▁übert	-9881
Nothing	-9882
bestimm	-9883
blicken	-9884
digkeit	-9885
dringen	-9886
faction	-9887
ightest	-9888
ischten	-9889
looking	-9890
ributed	-9891
rängten	-9892
schaute	-9893
schläge	-9894
setzung	-9895
sprache	-9896
stellte	-9897
sternis	-9898
weglich	-9899
zehnten	-9900
zehntes	-9901
änderte	-9902
änzerin	-9903
▁Beinen	-9904
▁Bienen	-9905
▁Briefe	-9906
▁Edelle	-9907
▁Farben	-9908
▁Fehler	-9909
▁Fächer	-9910
▁Gemüts	-9911
▁Gerade	-9912
▁Grunds	-9913
▁Gründe	-9914
▁Hatter	-9915
▁Irrtum	-9916
▁Kaiser	-9917
▁Kranke	-9918
▁Leiden	-9919
▁Meilen	-9920
▁Monate	-9921
▁Philip	-9922
▁Reicht	-9923
▁Reisen	-9924
▁Russia	-9925
▁Schwar	-9926
▁Sohnes	-9927
▁Teller	-9928
▁Unruhe	-9929
▁Waldes	-9930
▁Weiter	-9931
▁attend	-9932
▁balust	-9933
▁befahl	-9934
▁besann	-9935
▁bleich	-9936
▁bonnet	-9937
▁breite	-9938
▁cheeks	-9939
▁clergy	-9940
▁clouds	-9941
▁coffee	-9942
▁contem	-9943
▁conten	-9944
▁convey	-9945
▁denkst	-9946
▁depend	-9947
▁disapp	-9948
▁disgra	-9949
▁drüben	-9950
▁easier	-9951
▁eingeb	-9952
▁erkund	-9953
▁erregt	-9954
▁fester	-9955
▁flogen	-9956
▁flowed	-9957
▁gebrau	-9958
▁gefühl	-9959
▁hellen	-9960
▁hoffte	-9961
▁höchst	-9962
▁hölzer	-9963
▁improv	-9964
▁incomp	-9965
▁jammer	-9966
▁kaufen	-9967
▁keines	-9968
▁leiden	-9969
▁marked	-9970
▁method	-9971
▁nahmen	-9972
▁packte	-9973
▁palace	-9974
▁pardon	-9975
▁pillow	-9976
▁pounds	-9977
▁prüfen	-9978
▁quarre	-9979
▁quälen	-9980
▁rebell	-9981
▁reisen	-9982
▁rolled	-9983
▁schein	-9984
▁schmal	-9985
▁schwei	-9986
▁senses	-9987
▁severe	-9988
▁shrill	-9989
▁sleeve	-9990
▁smiles	-9991
▁soften	-9992
▁sooner	-9993
▁stayed	-9994
▁stream	-9995
▁streng	-9996
▁telegr	-9997
▁traces	-9998
▁ungere	-9999
▁wealth	-10000
▁weißer	-10001
▁wenden	-10002
▁wohnte	-10003
▁wretch	-10004
▁wählen	-10005
▁yellow	-10006
▁zarten	-10007
▁zuckte	-10008
▁zumute	-10009
arbeiten	-10010
handlung	-10011
itausend	-10012
kerchief	-10013
kewitsch	-10014
mosphere	-10015
reichend	-10016
stimmung	-10017
ungsvoll	-10018
▁Ankunft	-10019
▁Bildung	-10020
▁Ehrgeiz	-10021
▁Einfluß	-10022
▁Finally	-10023
▁Fingern	-10024
▁Fleisch	-10025
▁Frieden	-10026
▁Geistes	-10027
▁Kleinen	-10028
▁Nahrung	-10029
▁Olivier	-10030
▁Severus	-10031
▁Spiegel	-10032
▁Spitzen	-10033
▁Tribüne	-10034
▁Tropfen	-10035
▁Viertel	-10036
▁Vorteil	-10037
▁Winters	-10038
▁answers	-10039
▁avoided	-10040
▁awkward	-10041
▁blieben	-10042
▁braucht	-10043
▁collect	-10044
▁command	-10045
▁comrade	-10046
▁consent	-10047
▁correct	-10048
▁dancing	-10049
▁dichten	-10050
▁dreißig	-10051
▁dunklen	-10052
▁düstere	-10053
▁earnest	-10054
▁economy	-10055
▁embrace	-10056
▁erheben	-10057
▁erhielt	-10058
▁example	-10059
▁farther	-10060
▁freudig	-10061
▁gallows	-10062
▁gefragt	-10063
▁gelesen	-10064
▁gerührt	-10065
▁gewandt	-10066
▁horizon	-10067
▁kräftig	-10068
▁lachend	-10069
▁lawyers	-10070
▁leichte	-10071
▁mansion	-10072
▁members	-10073
▁mingled	-10074
▁neugier	-10075
▁nursery	-10076
▁painted	-10077
▁persons	-10078
▁pursued	-10079
▁quarrel	-10080
▁respond	-10081
▁richten	-10082
▁ringing	-10083
▁setting	-10084
▁shining	-10085
▁staring	-10086
▁stecken	-10087
▁steward	-10088
▁student	-10089
▁ungesch	-10090
▁unserem	-10091
▁violent	-10092
▁wedding	-10093
▁weighed	-10094
▁zweimal	-10095
▁äußeren	-10096
flichkeit	-10097
igerweise	-10098
igtausend	-10099
schuldige	-10100
stehenden	-10101
ständigen	-10102
▁Aussicht	-10103
▁Bischofs	-10104
▁Christus	-10105
▁Kleidern	-10106
▁Manchmal	-10107
▁Moreover	-10108
▁Pförtner	-10109
▁Schreien	-10110
▁Sorgfalt	-10111
▁Stockwer	-10112
▁Toilette	-10113
▁Ungeduld	-10114
▁accident	-10115
▁activity	-10116
▁animated	-10117
▁arrested	-10118
▁aussehen	-10119
▁belonged	-10120
▁berührte	-10121
▁besitzen	-10122
▁bezahlen	-10123
▁contempt	-10124
▁curtains	-10125
▁daylight	-10126
▁devoured	-10127
▁eisernen	-10128
▁entdeckt	-10129
▁enthielt	-10130
▁erfüllte	-10131
▁erklären	-10132
▁getrennt	-10133
▁gewinnen	-10134
▁gewonnen	-10135
▁geworfen	-10136
▁goodness	-10137
▁heimlich	-10138
▁heutigen	-10139
▁innocent	-10140
▁judgment	-10141
▁kneeling	-10142
▁langweil	-10143
▁military	-10144
▁offended	-10145
▁opinions	-10146
▁rendered	-10147
▁richtige	-10148
▁solitude	-10149
▁sorgfält	-10150
▁stopping	-10151
▁struggle	-10152
▁vergnügt	-10153
▁verkauft	-10154
▁zerstört	-10155
▁zufällig	-10156
gültigkeit	-10157
herrschaft	-10158
stellungen	-10159
▁Begleiter	-10160
▁Geliebten	-10161
▁Gesprächs	-10162
▁Hutmacher	-10163
▁Kameraden	-10164
▁Lehnstuhl	-10165
▁Offiziere	-10166
▁Petritsky	-10167
▁Presently	-10168
▁Schritten	-10169
▁Unordnung	-10170
▁Verhalten	-10171
▁Verwalter	-10172
▁Vorbereit	-10173
▁acknowled	-10174
▁acquittal	-10175
▁agitation	-10176
▁agreeable	-10177
▁announced	-10178
▁apartment	-10179
▁arbeitete	-10180
▁authority	-10181
▁begleitet	-10182
▁breathing	-10183
▁companion	-10184
▁confusion	-10185
▁defendant	-10186
▁ebenfalls	-10187
▁empfinden	-10188
▁geistigen	-10189
▁getäuscht	-10190
▁gleichsam	-10191
▁gradually	-10192
▁herrschte	-10193
▁keinerlei	-10194
▁knowledge	-10195
▁landowner	-10196
▁niedrigen	-10197
▁niemandem	-10198
▁nämlichen	-10199
▁otherwise	-10200
▁precisely	-10201
▁preparing	-10202
▁preserved	-10203
▁recollect	-10204
▁scattered	-10205
▁schüchter	-10206
▁strangers	-10207
▁verfallen	-10208
▁verlangte	-10209
▁verlieren	-10210
▁versunken	-10211
▁zerstreut	-10212
▁Abendessen	-10213
▁Bournisien	-10214
▁Finsternis	-10215
▁Klausnerin	-10216
▁Mitteilung	-10217
▁Tourangeau	-10218
▁University	-10219
▁Verachtung	-10220
▁Widerstand	-10221
▁angekommen	-10222
▁atmosphere	-10223
▁behauptete	-10224
▁comprehend	-10225
▁erscheinen	-10226
▁everywhere	-10227
▁geringsten	-10228
▁introduced	-10229
▁permission	-10230
▁vernünftig	-10231
▁verstummte	-10232
▁verwundert	-10233
▁vorstellen	-10234
verständlich	-10235
▁Geistlichen	-10236
▁Schildkröte	-10237
▁Sparsamkeit	-10238
▁Wiedersehen	-10239
▁accompanied	-10240
▁befriedigen	-10241
▁begreiflich	-10242
▁gegenseitig	-10243
▁incessantly	-10244
▁independent	-10245
▁königlichen	-10246
▁occupations	-10247
▁perceptible	-10248
▁unconscious	-10249
▁unzufrieden	-10250
▁überraschen	-10251
▁Verlegenheit	-10252
▁Verteidigung	-10253
▁considerable	-10254
▁dissatisfied	-10255
▁explanations	-10256
▁handkerchief	-10257
▁nachzudenken	-10258
▁schreckliche	-10259
▁verschiedene	-10260
▁verschwinden	-10261
▁zurückhalten	-10262
▁Archidiakonus	-10263
▁Dienstmädchen	-10264
▁Tuschkewitsch	-10265
▁consciousness	-10266
▁einverstanden	-10267
▁geschlossenen	-10268
▁insignificant	-10269
▁involuntarily	-10270
▁Dmitrijewitsch	-10271
▁augenblicklich	-10272
▁Schwierigkeiten	-10273
7.	-10274
Am	-10275
As	-10276
EF	-10277
Ex	-10278
KY	-10279
LY	-10280
Or	-10281
bu	-10282
gu	-10283
~!	-10284
▁à	-10285
"--	-10286
Bei	-10287
God	-10288
Mad	-10289
Say	-10290
Sid	-10291
Sir	-10292
Vor	-10293
Yet	-10294
ads	-10295
aja	-10296
arg	-10297
bra	-10298
brü	-10299
bum	-10300
ete	-10301
hns	-10302
ids	-10303
ift	-10304
iqu	-10305
kov	-10306
kug	-10307
kün	-10308
ode	-10309
pfe	-10310
sec	-10311
stü	-10312
tag	-10313
urt	-10314
usk	-10315
uzz	-10316
voc	-10317
vre	-10318
wed	-10319
xim	-10320
ymn	-10321
änn	-10322
äte	-10323
öch	-10324
ößt	-10325
▁Fä	-10326
▁Go	-10327
▁IN	-10328
▁OF	-10329
▁Op	-10330
▁Sü	-10331
▁aß	-10332
▁ec	-10333
▁il	-10334
Ihre	-10335
Kann	-10336
Mama	-10337
Miss	-10338
Only	-10339
Weil	-10340
Wies	-10341
afel	-10342
afft	-10343
agel	-10344
agna	-10345
aiss	-10346
atic	-10347
atus	-10348
ausk	-10349
ayed	-10350
bank	-10351
bara	-10352
bede	-10353
beln	-10354
bens	-10355
berg	-10356
bons	-10357
cipl	-10358
cony	-10359
denn	-10360
dich	-10361
eien	-10362
elty	-10363
emen	-10364
ened	-10365
esch	-10366
gilt	-10367
heul	-10368
iced	-10369
icip	-10370
icle	-10371
idet	-10372
iggs	-10373
igst	-10374
ivet	-10375
klar	-10376
lets	-10377
lour	-10378
länd	-10379
läss	-10380
mahl	-10381
nate	-10382
näck	-10383
omen	-10384
orge	-10385
pass	-10386
phin	-10387
plex	-10388
rale	-10389
reit	-10390
roch	-10391
rors	-10392
sing	-10393
text	-10394
tumn	-10395
uary	-10396
vort	-10397
vres	-10398
zten	-10399
zünd	-10400
ähte	-10401
ätig	-10402
ößen	-10403
▁--"	-10404
▁Apr	-10405
▁Cat	-10406
▁Che	-10407
▁Dau	-10408
▁Gas	-10409
▁Had	-10410
▁Kör	-10411
▁Laß	-10412
▁Nes	-10413
▁Pav	-10414
▁Prä	-10415
▁Res	-10416
▁Rog	-10417
▁Sim	-10418
▁Sud	-10419
▁Tra	-10420
▁Tri	-10421
▁Unw	-10422
▁Wut	-10423
▁ami	-10424
▁anf	-10425
▁asp	-10426
▁ath	-10427
▁ban	-10428
▁bee	-10429
▁cig	-10430
▁dil	-10431
▁ens	-10432
▁ero	-10433
▁fer	-10434
▁gay	-10435
▁gla	-10436
▁güt	-10437
▁hil	-10438
▁ign	-10439
▁lap	-10440
▁mas	-10441
▁pan	-10442
▁pot	-10443
▁rev	-10444
▁sav	-10445
▁seg	-10446
▁sem	-10447
▁sna	-10448
▁sou	-10449
▁unf	-10450
▁veh	-10451
▁wem	-10452
▁wra	-10453
Guten	-10454
Wieso	-10455
abend	-10456
acles	-10457
ahrte	-10458
ashes	-10459
ators	-10460
bente	-10461
chung	-10462
ckung	-10463
ctive	-10464
ctors	-10465
decke	-10466
denly	-10467
eifen	-10468
ering	-10469
erves	-10470
feuer	-10471
frage	-10472
gling	-10473
grund	-10474
hetic	-10475
hnung	-10476
hofes	-10477
iders	-10478
ietet	-10479
inate	-10480
ionen	-10481
ipfel	-10482
istet	-10483
itals	-10484
kraft	-10485
lande	-10486
lings	-10487
mütig	-10488
nehme	-10489
nised	-10490
ohlen	-10491
okina	-10492
ource	-10493
perte	-10494
piele	-10495
pless	-10496
rückt	-10497
skoje	-10498
thier	-10499
ulate	-10500
ummen	-10501
ursed	-10502
ushke	-10503
uties	-10504
utsam	-10505
vaise	-10506
▁Adel	-10507
▁Alas	-10508
▁Also	-10509
▁Amme	-10510
▁Bade	-10511
▁Bart	-10512
▁Bere	-10513
▁Bill	-10514
▁Both	-10515
▁Chir	-10516
▁Cour	-10517
▁Duke	-10518
▁Dumm	-10519
▁Ener	-10520
▁Fern	-10521
▁Flem	-10522
▁Glut	-10523
▁Grau	-10524
▁Güte	-10525
▁Haut	-10526
▁Käse	-10527
▁Leah	-10528
▁Lisa	-10529
▁Loge	-10530
▁Mark	-10531
▁Raum	-10532
▁Rest	-10533
▁Spaß	-10534
▁Spur	-10535
▁Szen	-10536
▁Säng	-10537
▁Terr	-10538
▁Thee	-10539
▁Thib	-10540
▁Vere	-10541
▁Vors	-10542
▁Wild	-10543
▁Wäre	-10544
▁Zeug	-10545
▁adop	-10546
▁afar	-10547
▁appl	-10548
▁bath	-10549
▁bree	-10550
▁bunt	-10551
▁cele	-10552
▁clad	-10553
▁coin	-10554
▁cult	-10555
▁dare	-10556
▁desk	-10557
▁eigh	-10558
▁ende	-10559
▁ends	-10560
▁erlo	-10561
▁ersp	-10562
▁erwä	-10563
▁fasc	-10564
▁fled	-10565
▁flog	-10566
▁forb	-10567
▁fres	-10568
▁fuss	-10569
▁gilt	-10570
▁gren	-10571
▁grün	-10572
▁heap	-10573
▁irre	-10574
▁lawn	-10575
▁lern	-10576
▁lest	-10577
▁lies	-10578
▁list	-10579
▁male	-10580
▁mama	-10581
▁meal	-10582
▁meas	-10583
▁nimm	-10584
▁pace	-10585
▁paid	-10586
▁pall	-10587
▁plau	-10588
▁pred	-10589
▁radi	-10590
▁rech	-10591
▁rush	-10592
▁sarc	-10593
▁sees	-10594
▁sieh	-10595
▁spaz	-10596
▁spec	-10597
▁sust	-10598
▁sämt	-10599
▁thou	-10600
▁umzu	-10601
▁unch	-10602
▁vale	-10603
▁vent	-10604
▁vere	-10605
▁wasn	-10606
▁werd	-10607
anwalt	-10608
bliche	-10609
cillor	-10610
ennung	-10611
folged	-10612
führer	-10613
haufen	-10614
hether	-10615
hungen	-10616
ichtes	-10617
idable	-10618
inence	-10619
kehrte	-10620
lieved	-10621
mäßige	-10622
nahmen	-10623
porter	-10624
ressed	-10625
ruppen	-10626
schiff	-10627
steher	-10628
treter	-10629
undern	-10630
velled	-10631
wendet	-10632
zeugen	-10633
üstern	-10634
▁Abbot	-10635
▁Andre	-10636
▁Bezug	-10637
▁Braut	-10638
▁Burns	-10639
▁Busen	-10640
▁Coict	-10641
▁Elfte	-10642
▁Erbar	-10643
▁Glanz	-10644
▁Gnade	-10645
▁Insel	-10646
▁Italy	-10647
▁Jedes	-10648
▁Josef	-10649
▁Kirch	-10650
▁Käfig	-10651
▁Linie	-10652
▁Länge	-10653
▁Marja	-10654
▁Monat	-10655
▁Rache	-10656
▁Rande	-10657
▁Scham	-10658
▁Schau	-10659
▁Staat	-10660
▁Steve	-10661
▁Theil	-10662
▁Would	-10663
▁Wände	-10664
▁Zuhör	-10665
▁admir	-10666
▁arose	-10667
▁ausdr	-10668
▁betro	-10669
▁betrü	-10670
▁block	-10671
▁board	-10672
▁coats	-10673
▁condu	-10674
▁drauf	-10675
▁ehren	-10676
▁fairy	-10677
▁fence	-10678
▁festh	-10679
▁fight	-10680
▁flesh	-10681
▁frank	-10682
▁freut	-10683
▁haste	-10684
▁hedge	-10685
▁hegen	-10686
▁hoben	-10687
▁holte	-10688
▁hängt	-10689
▁implo	-10690
▁indic	-10691
▁inval	-10692
▁knelt	-10693
▁kroch	-10694
▁kurze	-10695
▁lands	-10696
▁level	-10697
▁linen	-10698
▁magic	-10699
▁medic	-10700
▁naked	-10701
▁needs	-10702
▁opera	-10703
▁owing	-10704
▁persp	-10705
▁polic	-10706
▁popul	-10707
▁pupil	-10708
▁races	-10709
▁reins	-10710
▁rough	-10711
▁shawl	-10712
▁spare	-10713
▁speed	-10714
▁stehe	-10715
▁subst	-10716
▁sunsh	-10717
▁swall	-10718
▁swear	-10719
▁teils	-10720
▁tight	-10721
▁today	-10722
▁touch	-10723
▁towns	-10724
▁treff	-10725
▁trübe	-10726
▁umarm	-10727
▁unaus	-10728
▁unruh	-10729
▁upper	-10730
▁verur	-10731
▁volle	-10732
▁vorbe	-10733
▁weite	-10734
▁woher	-10735
▁works	-10736
▁äußer	-10737
armherz	-10738
barkeit	-10739
cheiden	-10740
dlichen	-10741
eration	-10742
fortune	-10743
hausted	-10744
illiers	-10745
ischung	-10746
laments	-10747
nocents	-10748
reckten	-10749
reibung	-10750
seligen	-10751
ulating	-10752
wartung	-10753
wischen	-10754
▁Anzahl	-10755
▁Bedürf	-10756
▁Bekann	-10757
▁Beleid	-10758
▁Besser	-10759
▁Briggs	-10760
▁Butter	-10761
▁Cousin	-10762
▁Edward	-10763
▁Erzieh	-10764
▁Flamel	-10765
▁Gebete	-10766
▁Gehalt	-10767
▁Geschä	-10768
▁Govern	-10769
▁Grafen	-10770
▁Heirat	-10771
▁Heiter	-10772
▁Herbst	-10773
▁Inhalt	-10774
▁Kommen	-10775
▁Kuchen	-10776
▁Lichte	-10777
▁Locken	-10778
▁Marmor	-10779
▁Moulin	-10780
▁Nutzen	-10781
▁Oberst	-10782
▁Petrow	-10783
▁Rechte	-10784
▁Schiff	-10785
▁Schloß	-10786
▁Schwer	-10787
▁Silber	-10788
▁Speise	-10789
▁Steine	-10790
▁Strafe	-10791
▁Stücke	-10792
▁Thunes	-10793
▁Thurme	-10794
▁Tushke	-10795
▁Varens	-10796
▁Waffen	-10797
▁Wasili	-10798
▁afford	-10799
▁arrang	-10800
▁autumn	-10801
▁behold	-10802
▁beings	-10803
▁beleid	-10804
▁beschw	-10805
▁bezahl	-10806
▁bishop	-10807
▁bourge	-10808
▁couldn	-10809
▁couple	-10810
▁courts	-10811
▁dancer	-10812
▁defect	-10813
▁design	-10814
▁dessel	-10815
▁dicken	-10816
▁dienen	-10817
▁direct	-10818
▁dreams	-10819
▁dreary	-10820
▁eifrig	-10821
▁einger	-10822
▁encoun	-10823
▁fanden	-10824
▁façade	-10825
▁fehlte	-10826
▁fierce	-10827
▁fright	-10828
▁füllte	-10829
▁geduld	-10830
▁gelebt	-10831
▁genügt	-10832
▁glühen	-10833
▁habits	-10834
▁hasten	-10835
▁herant	-10836
▁hoffen	-10837
▁hoping	-10838
▁hunger	-10839
▁hungry	-10840
▁hörten	-10841
▁invest	-10842
▁inward	-10843
▁joyful	-10844
▁joyous	-10845
▁judges	-10846
▁kindly	-10847
▁lately	-10848
▁leeren	-10849
▁linken	-10850
▁longed	-10851
▁loving	-10852
▁merken	-10853
▁mighty	-10854
▁murder	-10855
▁notion	-10856
▁papers	-10857
▁pieces	-10858
▁reconc	-10859
▁relief	-10860
▁repres	-10861
▁repuls	-10862
▁salary	-10863
▁sangen	-10864
▁schlie	-10865
▁sculpt	-10866
▁sehnte	-10867
▁selben	-10868
▁sermon	-10869
▁stören	-10870
▁symbol	-10871
▁teilte	-10872
▁theirs	-10873
▁throne	-10874
▁trüben	-10875
▁undert	-10876
▁unheim	-10877
▁unzähl	-10878
▁useful	-10879
▁vacant	-10880
▁verder	-10881
▁verlei	-10882
▁vermag	-10883
▁verses	-10884
▁vision	-10885
▁wecken	-10886
▁wenige	-10887
▁wilden	-10888
▁wohlbe	-10889
▁wußten	-10890
▁ändern	-10891
aissance	-10892
atherine	-10893
ausdruck	-10894
etheless	-10895
francois	-10896
gehenden	-10897
gesetzte	-10898
gleichen	-10899
lichsten	-10900
richtung	-10901
uchteten	-10902
zulassen	-10903
änderung	-10904
▁Bahnhof	-10905
▁Baudenk	-10906
▁Bertaux	-10907
▁Blätter	-10908
▁Daseins	-10909
▁Einbild	-10910
▁Fesseln	-10911
▁Flasche	-10912
▁Franken	-10913
▁Geschle	-10914
▁Gesetze	-10915
▁Gregors	-10916
▁Grenzen	-10917
▁Gründen	-10918
▁Ingrimm	-10919
▁Jupiter	-10920
▁Kapelle	-10921
▁Knochen	-10922
▁Liebkos	-10923
▁Marquis	-10924
▁Männern	-10925
▁Niemals	-10926
▁Pranger	-10927
▁Prozess	-10928
▁Romagna	-10929
▁Schande	-10930
▁Schweiß	-10931
▁Sitzung	-10932
▁Staunen	-10933
▁Sterben	-10934
▁Teppich	-10935
▁Theater	-10936
▁Verlauf	-10937
▁admired	-10938
▁anticip	-10939
▁assured	-10940
▁auffall	-10941
▁balcony	-10942
▁bearing	-10943
▁brannte	-10944
▁briefly	-10945
▁brushed	-10946
▁college	-10947
▁consult	-10948
▁control	-10949
▁convent	-10950
▁convuls	-10951
▁croquet	-10952
▁crushed	-10953
▁deceive	-10954
▁dispute	-10955
▁doubted	-10956
▁dreimal	-10957
▁empfind	-10958
▁endured	-10959
▁engross	-10960
▁erlaubt	-10961
▁ertönte	-10962
▁follows	-10963
▁gallant	-10964
▁gehören	-10965
▁geschah	-10966
▁greatly	-10967
▁größere	-10968
▁happens	-10969
▁heights	-10970
▁hervort	-10971
▁jumping	-10972
▁managed	-10973
▁mounted	-10974
▁nutzlos	-10975
▁nächste	-10976
▁observe	-10977
▁paarmal	-10978
▁perplex	-10979
▁pillory	-10980
▁pleases	-10981
▁project	-10982
▁recover	-10983
▁refused	-10984
▁rolling	-10985
▁science	-10986
▁stables	-10987
▁steigen	-10988
▁stärker	-10989
▁tauchte	-10990
▁thither	-10991
▁thunder	-10992
▁torture	-10993
▁tüchtig	-10994
▁umfaßte	-10995
▁umgeben	-10996
▁umsonst	-10997
▁unknown	-10998
▁unseres	-10999
▁unsicht	-11000
▁unusual	-11001
▁upright	-11002
▁verdopp	-11003
▁vergold	-11004
▁vernahm	-11005
▁weichen	-11006
▁wichtig	-11007
▁wiewohl	-11008
▁würdest	-11009
▁younger	-11010
▁zweiter	-11011
athedrale	-11012
intendent	-11013
scheidung	-11014
scheinend	-11015
schreiben	-11016
schreiber	-11017
schriften	-11018
schweigen	-11019
täuschung	-11020
zeichnete	-11021
▁Apotheke	-11022
▁Bastille	-11023
▁Christen	-11024
▁Edelmann	-11025
▁Eustache	-11026
▁Freunden	-11027
▁Gervaise	-11028
▁Minister	-11029
▁Nachbarn	-11030
▁Petrizki	-11031
▁Rechnung	-11032
▁Regiment	-11033
▁Schlafen	-11034
▁Schleier	-11035
▁Sorokina	-11036
▁Suddenly	-11037
▁Umgebung	-11038
▁Vorsicht	-11039
▁absorbed	-11040
▁accursed	-11041
▁acquired	-11042
▁admitted	-11043
▁affected	-11044
▁begangen	-11045
▁begreife	-11046
▁begrüßte	-11047
▁bestehen	-11048
▁bestürzt	-11049
▁bewahren	-11050
▁bezauber	-11051
▁blushing	-11052
▁breaking	-11053
▁compared	-11054
▁deceived	-11055
▁directed	-11056
▁discover	-11057
▁electric	-11058
▁erforder	-11059
▁errötend	-11060
▁gesessen	-11061
▁herauszu	-11062
▁herbeige	-11063
▁höchsten	-11064
▁insisted	-11065
▁intellig	-11066
▁meantime	-11067
▁mentally	-11068
▁moreover	-11069
▁mächtige	-11070
▁nochmals	-11071
▁officers	-11072
▁overcome	-11073
▁personal	-11074
▁physical	-11075
▁previous	-11076
▁relieved	-11077
▁reproach	-11078
▁schicken	-11079
▁schimmer	-11080
▁shouting	-11081
▁stepping	-11082
▁telegram	-11083
▁troubled	-11084
▁uttering	-11085
▁vanished	-11086
▁verboten	-11087
▁verlange	-11088
▁versehen	-11089
▁vertheid	-11090
▁weggehen	-11091
▁wondered	-11092
▁zärtlich	-11093
wendigkeit	-11094
▁Absichten	-11095
▁Ansichten	-11096
▁Entschuld	-11097
▁Erwartung	-11098
▁Gelächter	-11099
▁Gesichtes	-11100
▁Gladiator	-11101
▁Hindernis	-11102
▁Hippolyte	-11103
▁Neugierde	-11104
▁Patienten	-11105
▁Phantasie	-11106
▁Prokurist	-11107
▁Verfahren	-11108
▁Vertrauen	-11109
▁Vormittag	-11110
▁Vorschlag	-11111
▁Vorzimmer	-11112
▁affection	-11113
▁angesehen	-11114
▁angezogen	-11115
▁anxiously	-11116
▁aufgeregt	-11117
▁außerhalb	-11118
▁begriffen	-11119
▁brilliant	-11120
▁dangerous	-11121
▁daughters	-11122
▁described	-11123
▁desselben	-11124
▁disturbed	-11125
▁documents	-11126
▁einfachen	-11127
▁elsewhere	-11128
▁erblicken	-11129
▁exhausted	-11130
▁feierlich	-11131
▁gebrochen	-11132
▁household	-11133
▁innerhalb	-11134
▁instantly	-11135
▁interrupt	-11136
▁irgendwie	-11137
▁lediglich	-11138
▁leuchtete	-11139
▁mountains	-11140
▁ourselves	-11141
▁personage	-11142
▁recovered	-11143
▁repeating	-11144
▁richtigen	-11145
▁schneller	-11146
▁schwachen	-11147
▁schwarzem	-11148
▁specially	-11149
▁suspicion	-11150
▁ungerecht	-11151
▁verhaftet	-11152
▁verhalten	-11153
▁verkaufen	-11154
▁vollständ	-11155
▁wandering	-11156
▁zerrissen	-11157
▁zusamment	-11158
▁Deßjatinen	-11159
▁Heiterkeit	-11160
▁Herrenhaus	-11161
▁Lefrancois	-11162
▁Nachdenken	-11163
▁Nachmittag	-11164
▁Parlaments	-11165
▁Tushkevich	-11166
▁absolutely	-11167
▁accomplish	-11168
▁apparently	-11169
▁companions	-11170
▁completely	-11171
▁concerning	-11172
▁conclusion	-11173
▁connection	-11174
▁conscience	-11175
▁constantly	-11176
▁conviction	-11177
▁determined	-11178
▁downstairs	-11179
▁forgetting	-11180
▁furchtbare	-11181
▁glänzenden	-11182
▁impatience	-11183
▁misfortune	-11184
▁mysterious	-11185
▁persönlich	-11186
▁recognised	-11187
▁recognized	-11188
▁regelmäßig	-11189
▁schüchtern	-11190
▁separation	-11191
▁sonderbare	-11192
▁sorgfältig	-11193
▁stretching	-11194
▁successful	-11195
▁succession	-11196
▁thoroughly	-11197
▁wahrhaftig	-11198
▁überzeugen	-11199
▁Dienstboten	-11200
▁Michailowna	-11201
▁Renaissance	-11202
▁Töchterchen	-11203
▁Unterthanen	-11204
▁Versammlung	-11205
▁beschlossen	-11206
▁glücklichen	-11207
▁illuminated	-11208
▁indignation	-11209
▁mitgebracht	-11210
▁nachgedacht	-11211
▁sonderbaren	-11212
▁vorgefallen	-11213
▁Ähnlichkeit	-11214
▁Augenblicken	-11215
▁Herrschaften	-11216
▁particularly	-11217
▁satisfaction	-11218
▁satisfactory	-11219
▁ungewöhnlich	-11220
▁unterhielten	-11221
▁verschlossen	-11222
▁vorübergehen	-11223
▁öffentlichen	-11224
Adelsmarschall	-11225
▁Arbeitszimmer	-11226
▁ausgesprochen	-11227
▁auszusprechen	-11228
▁entschuldigen	-11229
▁französischen	-11230
▁unglücklichen	-11231
▁Arkadjewitschs	-11232
▁Entschuldigung	-11233
▁Stillschweigen	-11234
-'	-11235
4.	-11236
AY	-11237
En	-11238
Ge	-11239
ME	-11240
OL	-11241
US	-11242
Zu	-11243
_.	-11244
ax	-11245
da	-11246
sc	-11247
öd	-11248
?--	-11249
Aus	-11250
Dar	-11251
ESS	-11252
Has	-11253
Hol	-11254
Joe	-11255
Lie	-11256
Mir	-11257
Wor	-11258
Zum	-11259
alg	-11260
aph	-11261
ays	-11262
bür	-11263
cil	-11264
col	-11265
esz	-11266
flä	-11267
gab	-11268
gef	-11269
gek	-11270
gie	-11271
gor	-11272
gyp	-11273
hnm	-11274
hut	-11275
ini	-11276
jor	-11277
kon	-11278
krä	-11279
loy	-11280
lte	-11281
läu	-11282
nat	-11283
nem	-11284
omb	-11285
ova	-11286
owa	-11287
pel	-11288
pie	-11289
ppt	-11290
rim	-11291
roß	-11292
tte	-11293
uft	-11294
zum	-11295
äne	-11296
äst	-11297
äug	-11298
ömm	-11299
−−"	-11300
▁AL	-11301
▁Ev	-11302
▁IV	-11303
▁Sk	-11304
▁ew	-11305
▁gä	-11306
▁ty	-11307
Dieu	-11308
Wait	-11309
Will	-11310
anne	-11311
arre	-11312
arrt	-11313
aska	-11314
auff	-11315
bewe	-11316
door	-11317
eins	-11318
elei	-11319
elsh	-11320
emed	-11321
enne	-11322
fere	-11323
gund	-11324
häus	-11325
iasm	-11326
ibus	-11327
icom	-11328
ieht	-11329
igid	-11330
itim	-11331
jagt	-11332
lain	-11333
lase	-11334
lauf	-11335
lieb	-11336
luck	-11337
lück	-11338
meid	-11339
nant	-11340
odie	-11341
ollt	-11342
onie	-11343
oten	-11344
port	-11345
rand	-11346
rice	-11347
roix	-11348
rost	-11349
sehr	-11350
soci	-11351
stet	-11352
stre	-11353
thew	-11354
uhle	-11355
ulte	-11356
umes	-11357
unds	-11358
urra	-11359
vant	-11360
verw	-11361
vial	-11362
wall	-11363
wein	-11364
wert	-11365
when	-11366
wirk	-11367
ämmt	-11368
äute	-11369
örte	-11370
üllt	-11371
üren	-11372
▁Aut	-11373
▁Bec	-11374
▁Bez	-11375
▁Dir	-11376
▁Fil	-11377
▁Hel	-11378
▁Him	-11379
▁Häu	-11380
▁Hör	-11381
▁Inn	-11382
▁Its	-11383
▁Jem	-11384
▁Jes	-11385
▁Jew	-11386
▁Leg	-11387
▁Lié	-11388
▁Lob	-11389
▁Mag	-11390
▁May	-11391
▁Mie	-11392
▁Mom	-11393
▁Mön	-11394
▁Mör	-11395
▁Ner	-11396
▁Nic	-11397
▁Oli	-11398
▁Pra	-11399
▁Sit	-11400
▁Sla	-11401
▁Tex	-11402
▁Vom	-11403
▁Wün	-11404
▁XXX	-11405
▁ast	-11406
▁aux	-11407
▁cow	-11408
▁elf	-11409
▁fix	-11410
▁fla	-11411
▁gun	-11412
▁hie	-11413
▁hom	-11414
▁iss	-11415
▁jaw	-11416
▁log	-11417
▁mod	-11418
▁naß	-11419
▁omn	-11420
▁ost	-11421
▁pac	-11422
▁pil	-11423
▁pul	-11424
▁rom	-11425
▁tax	-11426
▁tip	-11427
▁trö	-11428
▁vap	-11429
▁Öff	-11430
Kitty	-11431
ONSKY	-11432
Welch	-11433
Wohin	-11434
achts	-11435
adeln	-11436
ading	-11437
agger	-11438
agues	-11439
ankte	-11440
artet	-11441
entat	-11442
erden	-11443
erten	-11444
eszow	-11445
fehle	-11446
fähig	-11447
gaben	-11448
ggard	-11449
gründ	-11450
heits	-11451
hilfe	-11452
hoben	-11453
hroom	-11454
hrter	-11455
ially	-11456
ickel	-11457
icles	-11458
icule	-11459
illen	-11460
iller	-11461
illes	-11462
impse	-11463
inals	-11464
itung	-11465
itute	-11466
itzig	-11467
itzte	-11468
ivres	-11469
kelte	-11470
llect	-11471
mchen	-11472
menge	-11473
mäler	-11474
ndeed	-11475
nelle	-11476
ollys	-11477
onies	-11478
onstr	-11479
ostet	-11480
ourse	-11481
ovsky	-11482
owder	-11483
posed	-11484
prech	-11485
rampf	-11486
recke	-11487
redit	-11488
resse	-11489
räumt	-11490
steig	-11491
stere	-11492
stete	-11493
stütz	-11494
there	-11495
uding	-11496
uries	-11497
uster	-11498
voked	-11499
zeits	-11500
ällig	-11501
änden	-11502
ösung	-11503
ünger	-11504
üpfte	-11505
▁Bret	-11506
▁Card	-11507
▁Coun	-11508
▁Desp	-11509
▁Deut	-11510
▁Dieu	-11511
▁Fack	-11512
▁Flor	-11513
▁Frou	-11514
▁Fünf	-11515
▁Grie	-11516
▁Kein	-11517
▁Kenn	-11518
▁Klar	-11519
▁Korn	-11520
▁Kupf	-11521
▁Mail	-11522
▁Marg	-11523
▁Math	-11524
▁Meer	-11525
▁Mock	-11526
▁Neuf	-11527
▁Ohre	-11528
▁Pelz	-11529
▁Pfad	-11530
▁Priv	-11531
▁Proz	-11532
▁Reue	-11533
▁Samt	-11534
▁Sapp	-11535
▁Serb	-11536
▁Sofa	-11537
▁Soup	-11538
▁Such	-11539
▁Supp	-11540
▁Thal	-11541
▁Tver	-11542
▁Unge	-11543
▁Wall	-11544
▁Wood	-11545
▁bees	-11546
▁belt	-11547
▁beur	-11548
▁blew	-11549
▁boat	-11550
▁bold	-11551
▁bore	-11552
▁bull	-11553
▁bust	-11554
▁capt	-11555
▁club	-11556
▁cool	-11557
▁cure	-11558
▁dran	-11559
▁drin	-11560
▁drop	-11561
▁edge	-11562
▁eher	-11563
▁ermü	-11564
▁erse	-11565
▁gene	-11566
▁goes	-11567
▁hinl	-11568
▁holy	-11569
▁horn	-11570
▁hätt	-11571
▁inev	-11572
▁joke	-11573
▁kick	-11574
▁klug	-11575
▁kopf	-11576
▁leap	-11577
▁lebe	-11578
▁matt	-11579
▁mend	-11580
▁mess	-11581
▁nave	-11582
▁neat	-11583
▁nest	-11584
▁noon	-11585
▁orig	-11586
▁perf	-11587
▁rede	-11588
▁safe	-11589
▁satt	-11590
▁seht	-11591
▁shed	-11592
▁sire	-11593
▁size	-11594
▁snat	-11595
▁task	-11596
▁taub	-11597
▁tear	-11598
▁thie	-11599
▁todt	-11600
▁treu	-11601
▁unre	-11602
▁verf	-11603
▁warn	-11604
▁whit	-11605
▁würd	-11606
▁»...	-11607
annung	-11608
antwor	-11609
atural	-11610
brauen	-11611
chance	-11612
chenke	-11613
elnden	-11614
endung	-11615
entuch	-11616
estsov	-11617
garten	-11618
gement	-11619
gingen	-11620
icomte	-11621
ierung	-11622
inkled	-11623
jected	-11624
kammer	-11625
kasten	-11626
klagte	-11627
llosen	-11628
mented	-11629
morgen	-11630
nissen	-11631
nommen	-11632
omfort	-11633
orting	-11634
redete	-11635
roider	-11636
sented	-11637
sprang	-11638
strich	-11639
tering	-11640
terior	-11641
theile	-11642
umente	-11643
voller	-11644
volles	-11645
warten	-11646
ächern	-11647
üstung	-11648
▁Anmut	-11649
▁April	-11650
▁Barte	-11651
▁Begeg	-11652
▁Blitz	-11653
▁Bring	-11654
▁Carlo	-11655
▁Clara	-11656
▁Count	-11657
▁Daher	-11658
▁Damit	-11659
▁Djali	-11660
▁Dolch	-11661
▁Ergeb	-11662
▁Europ	-11663
▁Figur	-11664
▁Folge	-11665
▁Fremd	-11666
▁Fried	-11667
▁Gehen	-11668
▁Gemüt	-11669
▁Genuß	-11670
▁Glöck	-11671
▁Grand	-11672
▁Gutes	-11673
▁Haare	-11674
▁Halle	-11675
▁Halse	-11676
▁Herde	-11677
▁Hotel	-11678
▁Jacke	-11679
▁Krone	-11680
▁Köpfe	-11681
▁Laska	-11682
▁Latin	-11683
▁Milan	-11684
▁Moral	-11685
▁Nesle	-11686
▁Often	-11687
▁Rauch	-11688
▁Rolle	-11689
▁Sense	-11690
▁Sohne	-11691
▁Sorte	-11692
▁Stamm	-11693
▁Säule	-11694
▁Taube	-11695
▁Three	-11696
▁Tritt	-11697
▁Unver	-11698
▁Verse	-11699
▁Wange	-11700
▁Welch	-11701
▁Welsh	-11702
▁Wiese	-11703
▁Würde	-11704
▁Zerst	-11705
▁aloud	-11706
▁angeb	-11707
▁angle	-11708
▁ansah	-11709
▁antip	-11710
▁armes	-11711
▁aufre	-11712
▁based	-11713
▁begab	-11714
▁berau	-11715
▁bloße	-11716
▁brass	-11717
▁brush	-11718
▁burnt	-11719
▁cares	-11720
▁choir	-11721
▁chose	-11722
▁civil	-11723
▁cruel	-11724
▁devel	-11725
▁enthü	-11726
▁fears	-11727
▁feste	-11728
▁finde	-11729
▁flame	-11730
▁flies	-11731
▁flour	-11732
▁fremd	-11733
▁fried	-11734
▁frost	-11735
▁führt	-11736
▁gaben	-11737
▁gewöl	-11738
▁glänz	-11739
▁grasp	-11740
▁graue	-11741
▁greet	-11742
▁gründ	-11743
▁guess	-11744
▁hegte	-11745
▁inhab	-11746
▁lasse	-11747
▁loose	-11748
▁malen	-11749
▁mitge	-11750
▁mould	-11751
▁nostr	-11752
▁overt	-11753
▁paint	-11754
▁penet	-11755
▁plung	-11756
▁prakt	-11757
▁proof	-11758
▁queer	-11759
▁raise	-11760
▁raven	-11761
▁regen	-11762
▁rules	-11763
▁sadly	-11764
▁schlä	-11765
▁score	-11766
▁seats	-11767
▁sehet	-11768
▁serve	-11769
▁shell	-11770
▁slipp	-11771
▁sowie	-11772
▁stein	-11773
▁stove	-11774
▁stuck	-11775
▁stürm	-11776
▁sword	-11777
▁thres	-11778
▁trage	-11779
▁trenn	-11780
▁trägt	-11781
▁träum	-11782
▁töten	-11783
▁ungem	-11784
▁unnöt	-11785
▁verbe	-11786
▁verbl	-11787
▁verfl	-11788
▁versp	-11789
▁vexed	-11790
▁warte	-11791
▁wegzu	-11792
▁yards	-11793
▁zeich	-11794
antwort	-11795
atively	-11796
brecher	-11797
dischen	-11798
führung	-11799
illaume	-11800
lichste	-11801
osition	-11802
viertel	-11803
zusagen	-11804
örungen	-11805
üchtige	-11806
▁Abente	-11807
▁Aufent	-11808
▁Ausruf	-11809
▁Ausweg	-11810
▁Beamte	-11811
▁Before	-11812
▁Birken	-11813
▁Breite	-11814
▁Brüder	-11815
▁Buchst	-11816
▁Bäumen	-11817
▁Ebenso	-11818
▁Einlad	-11819
▁Einver	-11820
▁Façade	-11821
▁Felder	-11822
▁Flamme	-11823
▁Folter	-11824
▁Forder	-11825
▁Gebiet	-11826
▁Gewand	-11827
▁Gitter	-11828
▁Glücks	-11829
▁Gärten	-11830
▁Jemand	-11831
▁Kostya	-11832
▁Kreise	-11833
▁Landst	-11834
▁Leibes	-11835
▁Linien	-11836
▁Majest	-11837
▁Minute	-11838
▁Moment	-11839
▁Morton	-11840
▁Mängel	-11841
▁Obwohl	-11842
▁Peszow	-11843
▁Prügel	-11844
▁Rahmen	-11845
▁Reihen	-11846
▁Roland	-11847
▁Schatz	-11848
▁Schlos	-11849
▁Seelen	-11850
▁Sieger	-11851
▁Solche	-11852
▁Spring	-11853
▁Though	-11854
▁Thüren	-11855
▁Traume	-11856
▁Tugend	-11857
▁Turtle	-11858
▁Vasily	-11859
▁Voraus	-11860
▁Wagens	-11861
▁Wahlen	-11862
▁Warwar	-11863
▁Zettel	-11864
▁attach	-11865
▁attain	-11866
▁aufges	-11867
▁ausgeb	-11868
▁barbar	-11869
▁bemüht	-11870
▁berühm	-11871
▁beteil	-11872
▁bewußt	-11873
▁blauen	-11874
▁blühen	-11875
▁border	-11876
▁bother	-11877
▁bowing	-11878
▁butter	-11879
▁carpet	-11880
▁charms	-11881
▁cheese	-11882
▁choose	-11883
▁colour	-11884
▁contra	-11885
▁crowns	-11886
▁cultiv	-11887
▁deputy	-11888
▁dienst	-11889
▁discon	-11890
▁drehen	-11891
▁eccles	-11892
▁eingel	-11893
▁eleven	-11894
▁entfer	-11895
▁erfaßt	-11896
▁famous	-11897
▁feeble	-11898
▁ferner	-11899
▁festge	-11900
▁folded	-11901
▁forces	-11902
▁fremde	-11903
▁freuen	-11904
▁gereiz	-11905
▁handed	-11906
▁handle	-11907
▁harder	-11908
▁hearts	-11909
▁heiser	-11910
▁herbei	-11911
▁heulte	-11912
▁hither	-11913
▁hollow	-11914
▁hörbar	-11915
▁imagin	-11916
▁infant	-11917
▁jacket	-11918
▁kniete	-11919
▁kommst	-11920
▁lasted	-11921
▁leisen	-11922
▁liebes	-11923
▁locked	-11924
▁meadow	-11925
▁missed	-11926
▁mutual	-11927
▁nobody	-11928
▁orient	-11929
▁overwh	-11930
▁partly	-11931
▁phrase	-11932
▁picked	-11933
▁pillar	-11934
▁proved	-11935
▁provin	-11936
▁quiver	-11937
▁quälte	-11938
▁reluct	-11939
▁report	-11940
▁reward	-11941
▁rühren	-11942
▁sacred	-11943
▁scythe	-11944
▁search	-11945
▁sounds	-11946
▁stroke	-11947
▁suited	-11948
▁surely	-11949
▁talent	-11950
▁tapfer	-11951
▁tavern	-11952
▁tossed	-11953
▁trafen	-11954
▁trugen	-11955
▁ungest	-11956
▁unklar	-11957
▁unsern	-11958
▁vanity	-11959
▁verbar	-11960
▁violet	-11961
▁virtue	-11962
▁vollem	-11963
▁wardro	-11964
▁warfen	-11965
▁werdet	-11966
▁wildes	-11967
▁worauf	-11968
achteten	-11969
arbeitet	-11970
attering	-11971
bereitet	-11972
ertainly	-11973
gelaufen	-11974
iastical	-11975
itzenden	-11976
jährigen	-11977
riebenen	-11978
schlägen	-11979
ulations	-11980
ustrious	-11981
zeichnen	-11982
zusetzen	-11983
ängenden	-11984
▁Achtung	-11985
▁Angriff	-11986
▁Ansehen	-11987
▁Begeben	-11988
▁Bericht	-11989
▁Bildnis	-11990
▁Canivet	-11991
▁Chapter	-11992
▁Energie	-11993
▁Fassung	-11994
▁Flecken	-11995
▁Französ	-11996
▁Geberde	-11997
▁Gemälde	-11998
▁Goldnen	-11999
▁Horizon	-12000
▁Häusern	-12001
▁Kanzlei	-12002
▁Matthew	-12003
▁Messire	-12004
▁Morgens	-12005
▁Pestsov	-12006
▁Portale	-12007
▁Predigt	-12008
▁Rettung	-12009
▁Schmutz	-12010
▁Schurke	-12011
▁Spanish	-12012
▁Statuen	-12013
▁Störung	-12014
▁Sympath	-12015
▁Taschen	-12016
▁Unrecht	-12017
▁Verschw	-12018
▁Whether	-12019
▁Wilhelm	-12020
▁Wächter	-12021
▁ability	-12022
▁address	-12023
▁amusing	-12024
▁anderem	-12025
▁aroused	-12026
▁arrange	-12027
▁begaben	-12028
▁beginnt	-12029
▁behaved	-12030
▁bekommt	-12031
▁bemächt	-12032
▁blicken	-12033
▁blowing	-12034
▁breadth	-12035
▁breiten	-12036
▁casting	-12037
▁chimney	-12038
▁climbed	-12039
▁concent	-12040
▁constru	-12041
▁counter	-12042
▁crowded	-12043
▁cruelty	-12044
▁current	-12045
▁dankbar	-12046
▁defects	-12047
▁despise	-12048
▁dorthin	-12049
▁eagerly	-12050
▁einzeln	-12051
▁elegant	-12052
▁equally	-12053
▁erfreut	-12054
▁erhaben	-12055
▁erniedr	-12056
▁erraten	-12057
▁eternal	-12058
▁examine	-12059
▁extreme	-12060
▁falsche	-12061
▁fancied	-12062
▁flutter	-12063
▁footman	-12064
▁frowned	-12065
▁fühlten	-12066
▁führten	-12067
▁geboren	-12068
▁gefühlt	-12069
▁gekannt	-12070
▁gestört	-12071
▁glasses	-12072
▁glimpse	-12073
▁gravely	-12074
▁günstig	-12075
▁haggard	-12076
▁hastily	-12077
▁healthy	-12078
▁heavily	-12079
▁hostile	-12080
▁hättest	-12081
▁höheren	-12082
▁invalid	-12083
▁kissing	-12084
▁lowered	-12085
▁lächeln	-12086
▁majesty	-12087
▁marvell	-12088
▁nachher	-12089
▁nunmehr	-12090
▁obvious	-12091
▁oppress	-12092
▁panting	-12093
▁parlour	-12094
▁perform	-12095
▁plainly	-12096
▁pretext	-12097
▁princes	-12098
▁refresh	-12099
▁reichen	-12100
▁results	-12101
▁ruhiger	-12102
▁sammeln	-12103
▁schmerz	-12104
▁shadows	-12105
▁stamped	-12106
▁starken	-12107
▁statues	-12108
▁stories	-12109
▁stöhnte	-12110
▁teacher	-12111
▁thanked	-12112
▁theatre	-12113
▁treated	-12114
▁trivial	-12115
▁unbesch	-12116
▁uniform	-12117
▁unterdr	-12118
▁vertrau	-12119
▁visitor	-12120
▁wearing	-12121
▁wischte	-12122
▁withdra	-12123
▁yielded	-12124
▁zugeben	-12125
▁zuletzt	-12126
▁zuwider	-12127
▁überkam	-12128
geblieben	-12129
gewachsen	-12130
ification	-12131
rehension	-12132
riedigung	-12133
seligkeit	-12134
völkerung	-12135
▁Augustus	-12136
▁Außerdem	-12137
▁Barmherz	-12138
▁Beinchen	-12139
▁Coictier	-12140
▁Empörung	-12141
▁Erbarmen	-12142
▁Freundes	-12143
▁Gebäudes	-12144
▁Gefangen	-12145
▁Gemeinde	-12146
▁Geschwor	-12147
▁Heiligen	-12148
▁Kindheit	-12149
▁Klarheit	-12150
▁Leichnam	-12151
▁Parteien	-12152
▁Province	-12153
▁Rückkehr	-12154
▁Schimmer	-12155
▁Schüssel	-12156
▁Strahlen	-12157
▁Terrasse	-12158
▁Trennung	-12159
▁Vorhänge	-12160
▁Vorwürfe	-12161
▁abruptly	-12162
▁angehört	-12163
▁angelegt	-12164
▁apparent	-12165
▁aufgesch	-12166
▁bedeuten	-12167
▁befangen	-12168
▁befreien	-12169
▁besseren	-12170
▁besuchen	-12171
▁beweisen	-12172
▁bildeten	-12173
▁brachten	-12174
▁branches	-12175
▁careless	-12176
▁coughing	-12177
▁darunter	-12178
▁delicacy	-12179
▁departed	-12180
▁dermaßen	-12181
▁disgrace	-12182
▁disposed	-12183
▁distinct	-12184
▁distress	-12185
▁erfüllen	-12186
▁erlangen	-12187
▁erwachte	-12188
▁exercise	-12189
▁extended	-12190
▁factions	-12191
▁fastened	-12192
▁frowning	-12193
▁geeignet	-12194
▁gespenst	-12195
▁graceful	-12196
▁hartnäck	-12197
▁helpless	-12198
▁herzlich	-12199
▁hübsches	-12200
▁intimate	-12201
▁jemandem	-12202
▁kümmerte	-12203
▁landlady	-12204
▁lauschte	-12205
▁material	-12206
▁mehrmals	-12207
▁memories	-12208
▁merchant	-12209
▁mushroom	-12210
▁neighbor	-12211
▁nirgends	-12212
▁painting	-12213
▁peinlich	-12214
▁prisoner	-12215
▁profound	-12216
▁prächtig	-12217
▁punished	-12218
▁relation	-12219
▁restless	-12220
▁ridicule	-12221
▁scholars	-12222
▁schuldig	-12223
▁schönste	-12224
▁silberne	-12225
▁sleeping	-12226
▁strained	-12227
▁studying	-12228
▁supposed	-12229
▁treasure	-12230
▁truthful	-12231
▁verletzt	-12232
▁versteht	-12233
▁warteten	-12234
▁weiteren	-12235
▁zitterte	-12236
▁zweifeln	-12237
▁überwält	-12238
lungsweise	-12239
▁Antworten	-12240
▁Begegnung	-12241
▁Beispiele	-12242
▁Besonders	-12243
▁Beziehung	-12244
▁Catherine	-12245
▁Committee	-12246
▁Edelleute	-12247
▁Eisenbahn	-12248
▁Erziehung	-12249
▁Gesandten	-12250
▁Geschäfte	-12251
▁Geschöpfe	-12252
▁Gestalten	-12253
▁Hochzeits	-12254
▁Liebhaber	-12255
▁Müdigkeit	-12256
▁Pflichten	-12257
▁Philosoph	-12258
▁Schrittes	-12259
▁Stelldich	-12260
▁Verbesser	-12261
▁Verdienst	-12262
▁answering	-12263
▁ascending	-12264
▁attentive	-12265
▁aussprach	-12266
▁behaupten	-12267
▁beruhigte	-12268
▁bourgeois	-12269
▁clergyman	-12270
▁collected	-12271
▁committed	-12272
▁conducted	-12273
▁consulted	-12274
▁convinced	-12275
▁delivered	-12276
▁derjenige	-12277
▁ehrlichen	-12278
▁einzelnen	-12279
▁embroider	-12280
▁entertain	-12281
▁erreichte	-12282
▁execution	-12283
▁finsteres	-12284
▁fragments	-12285
▁furnished	-12286
▁geleistet	-12287
▁gemütlich	-12288
▁gestanden	-12289
▁hesitated	-12290
▁increased	-12291
▁intellect	-12292
▁kreischen	-12293
▁moonlight	-12294
▁möglichen	-12295
▁niemanden	-12296
▁peinliche	-12297
▁policemen	-12298
▁rechtfert	-12299
▁regularly	-12300
▁responded	-12301
▁searching	-12302
▁slightest	-12303
▁spazieren	-12304
▁spiritual	-12305
▁stammered	-12306
▁succeeded	-12307
▁sustained	-12308
▁unbestimm	-12309
▁vagabonds	-12310
▁vergebens	-12311
▁vernommen	-12312
▁wirkliche	-12313
▁wondering	-12314
▁zitterten	-12315
▁ängstlich	-12316
folgedessen	-12317
▁Anschauung	-12318
▁Auffassung	-12319
▁Standpunkt	-12320
▁Unterricht	-12321
▁aneinander	-12322
▁aufrichtig	-12323
▁ausdrücken	-12324
▁balustrade	-12325
▁bellringer	-12326
▁bescheiden	-12327
▁besonderes	-12328
▁bestimmten	-12329
▁betrachtet	-12330
▁cautiously	-12331
▁confidence	-12332
▁discussion	-12333
▁entfernten	-12334
▁entzückend	-12335
▁experiment	-12336
▁frequently	-12337
▁gefürchtet	-12338
▁geschlagen	-12339
▁glückliche	-12340
▁increasing	-12341
▁langweilen	-12342
▁occupation	-12343
▁plötzliche	-12344
▁reflection	-12345
▁traversing	-12346
▁zärtlichen	-12347
▁Überlegung	-12348
schaftlichen	-12349
▁Augenblicks	-12350
▁Augenbrauen	-12351
▁Bevölkerung	-12352
▁Fähigkeiten	-12353
▁Gouvernante	-12354
▁Nebenzimmer	-12355
▁Schnurrbart	-12356
▁Vereinigung	-12357
▁Veränderung	-12358
▁anscheinend	-12359
▁beherrschen	-12360
▁beschreiben	-12361
▁established	-12362
▁forgiveness	-12363
▁furchtbaren	-12364
▁hergekommen	-12365
▁hinreichend	-12366
▁imagination	-12367
▁nonetheless	-12368
▁proceedings	-12369
▁seinerseits	-12370
▁unbeweglich	-12371
▁unerwartete	-12372
▁unverändert	-12373
▁verheiraten	-12374
▁widerstehen	-12375
▁Alexandrovna	-12376
▁Entscheidung	-12377
▁Shcherbatsky	-12378
▁Swijaschskis	-12379
▁accomplished	-12380
▁deliberately	-12381
▁eingerichtet	-12382
▁hervortreten	-12383
▁unglückliche	-12384
▁unterbrochen	-12385
▁wiederholten	-12386
▁Bekanntschaft	-12387
▁Familienleben	-12388
▁Schwierigkeit	-12389
▁beabsichtigte	-12390
▁consideration	-12391
▁distinguished	-12392
▁embarrassment	-12393
▁untereinander	-12394
▁unterscheiden	-12395
▁Handlungsweise	-12396
▁Vorbereitungen	-12397
▁fürchterlichen	-12398
▁Straßenpflaster	-12399
".	-12400
61	-12401
9.	-12402
;"	-12403
Ho	-12404
IR	-12405
La	-12406
NE	-12407
OW	-12408
Pa	-12409
Pr	-12410
TH	-12411
Wh	-12412
ez	-12413
ni	-12414
nn	-12415
uk	-12416
ye	-12417
zv	-12418
äp	-12419
ée	-12420
és	-12421
üß	-12422
▁&	-12423
--_	-12424
Dam	-12425
Daß	-12426
Gut	-12427
HAT	-12428
Her	-12429
His	-12430
Mon	-12431
aal	-12432
ael	-12433
ahm	-12434
akt	-12435
arf	-12436
ata	-12437
avo	-12438
bag	-12439
box	-12440
bro	-12441
cks	-12442
cts	-12443
dex	-12444
did	-12445
dro	-12446
eff	-12447
eta	-12448
ety	-12449
ewe	-12450
fau	-12451
fit	-12452
fuß	-12453
gst	-12454
hel	-12455
idy	-12456
ieh	-12457
ieu	-12458
jon	-12459
jud	-12460
kin	-12461
kor	-12462
lig	-12463
lär	-12464
mes	-12465
mod	-12466
nie	-12467
ohl	-12468
oir	-12469
osd	-12470
pft	-12471
pol	-12472
pts	-12473
put	-12474
rud	-12475
rut	-12476
räu	-12477
röm	-12478
sig	-12479
tei	-12480
urd	-12481
vna	-12482
ête	-12483
▁-«	-12484
▁1.	-12485
▁2.	-12486
▁?«	-12487
▁AT	-12488
▁Ac	-12489
▁Ak	-12490
▁Bu	-12491
▁Eu	-12492
▁Ew	-12493
▁Eß	-12494
▁Ju	-12495
▁Nä	-12496
▁Pe	-12497
▁Ty	-12498
▁eh	-12499
▁pu	-12500
Beim	-12501
Doch	-12502
Ganz	-12503
Germ	-12504
Mais	-12505
NING	-12506
Noch	-12507
Take	-12508
Tell	-12509
abin	-12510
acks	-12511
adet	-12512
afür	-12513
agre	-12514
amme	-12515
ampf	-12516
ancs	-12517
ands	-12518
anja	-12519
aper	-12520
athl	-12521
aver	-12522
avid	-12523
back	-12524
ball	-12525
beau	-12526
bett	-12527
biet	-12528
born	-12529
bout	-12530
corn	-12531
cuse	-12532
dain	-12533
edet	-12534
edly	-12535
eilt	-12536
elet	-12537
elis	-12538
embr	-12539
enny	-12540
erty	-12541
etit	-12542
etze	-12543
fest	-12544
ffte	-12545
find	-12546
flie	-12547
flur	-12548
four	-12549
gers	-12550
gien	-12551
grat	-12552
greg	-12553
host	-12554
incl	-12555
irch	-12556
iren	-12557
isis	-12558
jahr	-12559
kind	-12560
lech	-12561
letz	-12562
line	-12563
male	-12564
ming	-12565
nach	-12566
nier	-12567
ocht	-12568
ogut	-12569
oise	-12570
olie	-12571
once	-12572
onte	-12573
ores	-12574
paar	-12575
pest	-12576
ping	-12577
ppte	-12578
prom	-12579
pult	-12580
putz	-12581
rust	-12582
sage	-12583
seln	-12584
sels	-12585
stud	-12586
tery	-12587
them	-12588
thes	-12589
thür	-12590
udge	-12591
usal	-12592
volk	-12593
weis	-12594
yard	-12595
ylum	-12596
ztes	-12597
Über	-12598
äuft	-12599
äumt	-12600
öser	-12601
ünkt	-12602
ütte	-12603
▁16.	-12604
▁Acc	-12605
▁App	-12606
▁Bou	-12607
▁Bro	-12608
▁Day	-12609
▁Dis	-12610
▁Eil	-12611
▁Erd	-12612
▁Erf	-12613
▁Erg	-12614
▁Erz	-12615
▁HER	-12616
▁Hon	-12617
▁Isa	-12618
▁Jim	-12619
▁Kol	-12620
▁Leb	-12621
▁Mär	-12622
▁Old	-12623
▁Paw	-12624
▁Pul	-12625
▁Rad	-12626
▁Rym	-12627
▁Räu	-12628
▁Sag	-12629
▁Sek	-12630
▁Umf	-12631
▁XIV	-12632
▁Zig	-12633
▁ank	-12634
▁apr	-12635
▁bod	-12636
▁bür	-12637
▁deu	-12638
▁enf	-12639
▁enl	-12640
▁exh	-12641
▁fan	-12642
▁gez	-12643
▁hau	-12644
▁ißt	-12645
▁lou	-12646
▁müh	-12647
▁oak	-12648
▁pit	-12649
▁ple	-12650
▁ras	-12651
▁sed	-12652
▁shy	-12653
▁soo	-12654
▁tur	-12655
▁töd	-12656
▁wäl	-12657
After	-12658
Alles	-12659
Bring	-12660
Diese	-12661
Every	-12662
Liebe	-12663
Peter	-12664
adise	-12665
aging	-12666
alien	-12667
alted	-12668
altet	-12669
ambur	-12670
anded	-12671
aning	-12672
armed	-12673
atest	-12674
athol	-12675
atory	-12676
atsch	-12677
aweta	-12678
brary	-12679
cherd	-12680
chnet	-12681
dened	-12682
ehmer	-12683
einfl	-12684
elung	-12685
enior	-12686
erous	-12687
erted	-12688
esung	-12689
führe	-12690
gende	-12691
griff	-12692
heard	-12693
horse	-12694
iance	-12695
iated	-12696
icant	-12697
ician	-12698
idmet	-12699
ients	-12700
ieter	-12701
ilway	-12702
inkte	-12703
insel	-12704
insen	-12705
irten	-12706
ivert	-12707
kened	-12708
lebte	-12709
leute	-12710
ließt	-12711
liked	-12712
loses	-12713
lovna	-12714
lowna	-12715
lying	-12716
narde	-12717
neath	-12718
odium	-12719
oming	-12720
ondon	-12721
organ	-12722
ownas	-12723
pferd	-12724
rafen	-12725
rates	-12726
renge	-12727
riety	-12728
rigen	-12729
rovsk	-12730
räche	-12731
rängt	-12732
seher	-12733
stich	-12734
stube	-12735
terue	-12736
tingu	-12737
umber	-12738
urbed	-12739
urous	-12740
wache	-12741
wandt	-12742
weckt	-12743
weile	-12744
zweck	-12745
änner	-12746
öpfen	-12747
ünste	-12748
üssig	-12749
▁1465	-12750
▁Bitt	-12751
▁Blei	-12752
▁Büro	-12753
▁Dorm	-12754
▁Dutz	-12755
▁Ferm	-12756
▁Flur	-12757
▁Fröh	-12758
▁Früh	-12759
▁Gond	-12760
▁Habe	-12761
▁Herd	-12762
▁Häup	-12763
▁Jede	-12764
▁Kart	-12765
▁Kies	-12766
▁Klub	-12767
▁Kurz	-12768
▁Laub	-12769
▁Lebe	-12770
▁Leid	-12771
▁Lynn	-12772
▁Lüge	-12773
▁Mahl	-12774
▁Mode	-12775
▁Narr	-12776
▁Näch	-12777
▁Once	-12778
▁Pein	-12779
▁Reis	-12780
▁Rich	-12781
▁Scat	-12782
▁Scho	-12783
▁Soon	-12784
▁THAT	-12785
▁Tanz	-12786
▁Turn	-12787
▁Töne	-12788
▁Wach	-12789
▁Wass	-12790
▁Weiß	-12791
▁Werd	-12792
▁Wils	-12793
▁Witz	-12794
▁Wäld	-12795
▁Zahl	-12796
▁amus	-12797
▁aren	-12798
▁army	-12799
▁bars	-12800
▁base	-12801
▁beam	-12802
▁beck	-12803
▁bege	-12804
▁beis	-12805
▁brut	-12806
▁buck	-12807
▁cage	-12808
▁cake	-12809
▁caps	-12810
▁chat	-12811
▁citi	-12812
▁curt	-12813
▁damp	-12814
▁dial	-12815
▁dumb	-12816
▁east	-12817
▁ecst	-12818
▁ehem	-12819
▁envy	-12820
▁erbe	-12821
▁erfr	-12822
▁erhö	-12823
▁estr	-12824
▁ewig	-12825
▁faul	-12826
▁flee	-12827
▁fury	-12828
▁gang	-12829
▁gelä	-12830
▁gibb	-12831
▁gird	-12832
▁gran	-12833
▁gray	-12834
▁hadn	-12835
▁heat	-12836
▁hook	-12837
▁intr	-12838
▁krit	-12839
▁laws	-12840
▁lots	-12841
▁mile	-12842
▁mort	-12843
▁männ	-12844
▁nett	-12845
▁noth	-12846
▁närr	-12847
▁page	-12848
▁palm	-12849
▁paßt	-12850
▁pell	-12851
▁pett	-12852
▁push	-12853
▁quer	-12854
▁risk	-12855
▁rode	-12856
▁rund	-12857
▁russ	-12858
▁shan	-12859
▁shoe	-12860
▁shot	-12861
▁slip	-12862
▁sofa	-12863
▁subs	-12864
▁tats	-12865
▁tele	-12866
▁torn	-12867
▁twil	-12868
▁vort	-12869
▁völl	-12870
▁wißt	-12871
▁woke	-12872
▁yard	-12873
▁übel	-12874
Alexei	-12875
Alexis	-12876
Dieses	-12877
Really	-12878
acious	-12879
andeur	-12880
annehm	-12881
benden	-12882
bieten	-12883
blickt	-12884
brannt	-12885
cepted	-12886
cherie	-12887
ckchen	-12888
ension	-12889
etians	-12890
fenden	-12891
fläche	-12892
fügung	-12893
geduld	-12894
geschm	-12895
gesell	-12896
gested	-12897
ground	-12898
hauses	-12899
headed	-12900
iegelt	-12901
igence	-12902
ighing	-12903
igneur	-12904
imming	-12905
itably	-12906
itious	-12907
kragen	-12908
machen	-12909
mauern	-12910
mities	-12911
nechte	-12912
ortion	-12913
ourite	-12914
ousers	-12915
pferde	-12916
platte	-12917
redung	-12918
rocket	-12919
rowned	-12920
rungen	-12921
rusted	-12922
schwei	-12923
schöne	-12924
setzte	-12925
sprüng	-12926
stimme	-12927
strahl	-12928
tasche	-12929
things	-12930
ulting	-12931
uously	-12932
usions	-12933
ustice	-12934
vation	-12935
werfen	-12936
wohner	-12937
wollen	-12938
zählen	-12939
öhnung	-12940
übelte	-12941
▁Agnes	-12942
▁Andry	-12943
▁Anord	-12944
▁Baron	-12945
▁Berge	-12946
▁Beruf	-12947
▁Beute	-12948
▁Bilds	-12949
▁Brand	-12950
▁Bruch	-12951
▁Bären	-12952
▁Büßer	-12953
▁Degen	-12954
▁Demüt	-12955
▁Eifer	-12956
▁Elend	-12957
▁Erden	-12958
▁Faust	-12959
▁Gabel	-12960
▁Gasth	-12961
▁Guten	-12962
▁Hecke	-12963
▁Heute	-12964
▁Hätte	-12965
▁Jelis	-12966
▁Klapp	-12967
▁Kling	-12968
▁Kolle	-12969
▁Lehns	-12970
▁Masse	-12971
▁Maxim	-12972
▁Meere	-12973
▁Montm	-12974
▁Moses	-12975
▁Mouse	-12976
▁Möbel	-12977
▁North	-12978
▁Offen	-12979
▁Pläne	-12980
▁Rosen	-12981
▁Satur	-12982
▁Scheu	-12983
▁Schna	-12984
▁Schuß	-12985
▁Schwe	-12986
▁Sehen	-12987
▁Sehns	-12988
▁Shall	-12989
▁Spott	-12990
▁Stern	-12991
▁Stufe	-12992
▁Summe	-12993
▁Sünde	-12994
▁Tafel	-12995
▁Tanja	-12996
▁Tasch	-12997
▁Texas	-12998
▁Theat	-12999
▁Their	-13000
▁Thore	-13001
▁Twers	-13002
▁Venez	-13003
▁Verur	-13004
▁Vlase	-13005
▁Wache	-13006
▁Wachs	-13007
▁Weißt	-13008
▁Zusch	-13009
▁acted	-13010
▁adopt	-13011
▁advoc	-13012
▁ahead	-13013
▁ankam	-13014
▁anmut	-13015
▁armer	-13016
▁außen	-13017
▁bedau	-13018
▁bells	-13019
▁bless	-13020
▁clung	-13021
▁cries	-13022
▁davor	-13023
▁debts	-13024
▁decis	-13025
▁dirty	-13026
▁drank	-13027
▁dumpf	-13028
▁eigne	-13029
▁enemy	-13030
▁energ	-13031
▁entbl	-13032
▁epoch	-13033
▁erbar	-13034
▁erwid	-13035
▁exped	-13036
▁feels	-13037
▁feine	-13038
▁finds	-13039
▁glich	-13040
▁glitt	-13041
▁grief	-13042
▁grimm	-13043
▁harsh	-13044
▁heels	-13045
▁helle	-13046
▁holes	-13047
▁image	-13048
▁imper	-13049
▁kalte	-13050
▁kirch	-13051
▁kniff	-13052
▁lunch	-13053
▁löste	-13054
▁major	-13055
▁manif	-13056
▁match	-13057
▁minor	-13058
▁müden	-13059
▁north	-13060
▁notes	-13061
▁piled	-13062
▁plump	-13063
▁porch	-13064
▁prett	-13065
▁price	-13066
▁produ	-13067
▁redou	-13068
▁remed	-13069
▁rigid	-13070
▁risen	-13071
▁roast	-13072
▁ruins	-13073
▁rusty	-13074
▁schla	-13075
▁scold	-13076
▁scorn	-13077
▁seren	-13078
▁shape	-13079
▁shows	-13080
▁snipe	-13081
▁songs	-13082
▁stage	-13083
▁stamm	-13084
▁starb	-13085
▁steal	-13086
▁steif	-13087
▁stool	-13088
▁surly	-13089
▁swath	-13090
▁swing	-13091
▁takes	-13092
▁terms	-13093
▁tools	-13094
▁unbeg	-13095
▁unend	-13096
▁unent	-13097
▁using	-13098
▁wahre	-13099
▁wheat	-13100
▁wilde	-13101
▁wiped	-13102
▁wisse	-13103
▁woran	-13104
▁worry	-13105
▁worum	-13106
▁wüßte	-13107
▁zarte	-13108
▁zeigt	-13109
▁zieht	-13110
▁zukün	-13111
▁zweck	-13112
▁Ärmel	-13113
▁Äußer	-13114
Germain	-13115
Jacques	-13116
alteten	-13117
artiges	-13118
ational	-13119
ception	-13120
cipline	-13121
elessly	-13122
elthier	-13123
erences	-13124
erkunst	-13125
esented	-13126
fassung	-13127
gebenen	-13128
gelesen	-13129
gestalt	-13130
hrenden	-13131
ilities	-13132
itterte	-13133
liament	-13134
liedern	-13135
mäßigen	-13136
ounding	-13137
prungen	-13138
schauen	-13139
schchen	-13140
schlage	-13141
szimmer	-13142
undvier	-13143
venient	-13144
wandten	-13145
zustand	-13146
▁Abende	-13147
▁Andere	-13148
▁Balken	-13149
▁Beding	-13150
▁Beginn	-13151
▁Bekass	-13152
▁Berthe	-13153
▁Besitz	-13154
▁Beweis	-13155
▁Brücke	-13156
▁Buches	-13157
▁Dollys	-13158
▁Dächer	-13159
▁Dämmer	-13160
▁Einmal	-13161
▁Entsch	-13162
▁Europa	-13163
▁Feinde	-13164
▁Ferner	-13165
▁Freige	-13166
▁Gehirn	-13167
▁Gemahl	-13168
▁Gesang	-13169
▁Glanze	-13170
▁Glücke	-13171
▁Grenze	-13172
▁Haaren	-13173
▁Jammer	-13174
▁Julian	-13175
▁Julius	-13176
▁Justiz	-13177
▁Karren	-13178
▁Keller	-13179
▁Kerzen	-13180
▁Kissen	-13181
▁Klasse	-13182
▁Lampen	-13183
▁London	-13184
▁Lowton	-13185
▁Manche	-13186
▁Mangel	-13187
▁Martin	-13188
▁Matwei	-13189
▁Merkal	-13190
▁Michel	-13191
▁Mienen	-13192
▁Mörder	-13193
▁Nachts	-13194
▁Nerven	-13195
▁Nieder	-13196
▁Palais	-13197
▁Pforte	-13198
▁Preise	-13199
▁Profoß	-13200
▁Qualen	-13201
▁Really	-13202
▁Rechen	-13203
▁Reiter	-13204
▁Rogers	-13205
▁Sappho	-13206
▁Schöne	-13207
▁Schöpf	-13208
▁System	-13209
▁Vorrat	-13210
▁Weiber	-13211
▁Welche	-13212
▁Westen	-13213
▁abends	-13214
▁abhäng	-13215
▁absurd	-13216
▁access	-13217
▁associ	-13218
▁asylum	-13219
▁beasts	-13220
▁bedarf	-13221
▁begins	-13222
▁behand	-13223
▁benach	-13224
▁betete	-13225
▁bewegt	-13226
▁bracel	-13227
▁bringe	-13228
▁brings	-13229
▁bückte	-13230
▁candid	-13231
▁cellar	-13232
▁chairs	-13233
▁charge	-13234
▁christ	-13235
▁coarse	-13236
▁compar	-13237
▁compos	-13238
▁cursed	-13239
▁dankte	-13240
▁deacon	-13241
▁decide	-13242
▁deines	-13243
▁dicker	-13244
▁distri	-13245
▁duties	-13246
▁eifers	-13247
▁erlebt	-13248
▁erster	-13249
▁evoked	-13250
▁excess	-13251
▁exclam	-13252
▁fehlen	-13253
▁feinen	-13254
▁feiner	-13255
▁female	-13256
▁finest	-13257
▁francs	-13258
▁frühen	-13259
▁ganzer	-13260
▁gefiel	-13261
▁geriet	-13262
▁gewagt	-13263
▁gladly	-13264
▁glaubt	-13265
▁gutmüt	-13266
▁highly	-13267
▁innere	-13268
▁island	-13269
▁kandid	-13270
▁kaufte	-13271
▁klagte	-13272
▁klarer	-13273
▁langes	-13274
▁laying	-13275
▁learnt	-13276
▁lebten	-13277
▁leider	-13278
▁limits	-13279
▁lonely	-13280
▁madame	-13281
▁magist	-13282
▁market	-13283
▁meagre	-13284
▁melted	-13285
▁minder	-13286
▁misery	-13287
▁modest	-13288
▁mouths	-13289
▁munter	-13290
▁nachts	-13291
▁nerves	-13292
▁normal	-13293
▁parall	-13294
▁parted	-13295
▁polite	-13296
▁poured	-13297
▁powder	-13298
▁praise	-13299
▁preßte	-13300
▁pulpit	-13301
▁purple	-13302
▁refuge	-13303
▁refuse	-13304
▁releas	-13305
▁religi	-13306
▁rested	-13307
▁restra	-13308
▁review	-13309
▁riefen	-13310
▁runden	-13311
▁sacked	-13312
▁scales	-13313
▁senior	-13314
▁shades	-13315
▁sinken	-13316
▁spoilt	-13317
▁spürte	-13318
▁stands	-13319
▁stared	-13320
▁starke	-13321
▁stellt	-13322
▁strict	-13323
▁tenden	-13324
▁thaten	-13325
▁thinks	-13326
▁toilet	-13327
▁transp	-13328
▁undeut	-13329
▁united	-13330
▁unsrer	-13331
▁unwell	-13332
▁valour	-13333
▁vergeb	-13334
▁vermut	-13335
▁viewed	-13336
▁wahren	-13337
▁wahrer	-13338
▁wahres	-13339
▁waking	-13340
▁warmen	-13341
▁wartet	-13342
▁washed	-13343
▁wehrte	-13344
▁weight	-13345
▁weinen	-13346
▁wholly	-13347
▁wicket	-13348
▁widers	-13349
▁zornig	-13350
▁öfters	-13351
▁überre	-13352
aneously	-13353
brechung	-13354
ftausend	-13355
istungen	-13356
pensable	-13357
schüttel	-13358
seigneur	-13359
stlichen	-13360
underung	-13361
zusuchen	-13362
üchtigen	-13363
▁Adresse	-13364
▁Anstand	-13365
▁Barbara	-13366
▁Because	-13367
▁Blickes	-13368
▁Bourbon	-13369
▁Burgund	-13370
▁Dutzend	-13371
▁Flammen	-13372
▁Früchte	-13373
▁Gebiete	-13374
▁Geläute	-13375
▁Glieder	-13376
▁Henriet	-13377
▁Krocket	-13378
▁Mailand	-13379
▁Neigung	-13380
▁Papiere	-13381
▁Perhaps	-13382
▁Pfeifen	-13383
▁Pferden	-13384
▁Rechten	-13385
▁Russian	-13386
▁Schaden	-13387
▁Spanier	-13388
▁Stephen	-13389
▁Strecke	-13390
▁Stremov	-13391
▁Stremow	-13392
▁Studien	-13393
▁Thibaut	-13394
▁Through	-13395
▁Treppen	-13396
▁Triumph	-13397
▁Tuvache	-13398
▁Tüvache	-13399
▁Vicomte	-13400
▁Vorhang	-13401
▁Warwara	-13402
▁Without	-13403
▁Zeitung	-13404
▁Zuhörer	-13405
▁achieve	-13406
▁allemal	-13407
▁appears	-13408
▁audible	-13409
▁aufgest	-13410
▁beaming	-13411
▁beating	-13412
▁begeben	-13413
▁besetzt	-13414
▁bestehe	-13415
▁betäubt	-13416
▁bezahlt	-13417
▁blanket	-13418
▁bottles	-13419
▁breathe	-13420
▁bridges	-13421
▁cavalry	-13422
▁central	-13423
▁charity	-13424
▁citizen	-13425
▁clasped	-13426
▁collars	-13427
▁conceal	-13428
▁congrat	-13429
▁congreg	-13430
▁conject	-13431
▁conspic	-13432
▁corners	-13433
▁costume	-13434
▁crossed	-13435
▁crowned	-13436
▁dachten	-13437
▁dazzled	-13438
▁depress	-13439
▁desires	-13440
▁disdain	-13441
▁dismiss	-13442
▁divided	-13443
▁drawers	-13444
▁dreamed	-13445
▁ebensow	-13446
▁emperor	-13447
▁encoura	-13448
▁enthält	-13449
▁erklärt	-13450
▁erregen	-13451
▁exalted	-13452
▁extingu	-13453
▁furious	-13454
▁gefolgt	-13455
▁gefreut	-13456
▁genannt	-13457
▁gewählt	-13458
▁gleamed	-13459
▁grasped	-13460
▁grenzen	-13461
▁heavens	-13462
▁heilige	-13463
▁herausk	-13464
▁highest	-13465
▁hindern	-13466
▁hinzufü	-13467
▁hungrig	-13468
▁interse	-13469
▁jackets	-13470
▁jetzige	-13471
▁knotted	-13472
▁kümmern	-13473
▁masters	-13474
▁measure	-13475
▁methods	-13476
▁mißgest	-13477
▁offices	-13478
▁outlook	-13479
▁pflegen	-13480
▁popular	-13481
▁portion	-13482
▁pouring	-13483
▁praying	-13484
▁pricked	-13485
▁produce	-13486
▁prolong	-13487
▁prosper	-13488
▁quicker	-13489
▁quitted	-13490
▁railway	-13491
▁related	-13492
▁require	-13493
▁respons	-13494
▁ribbons	-13495
▁riesige	-13496
▁robbers	-13497
▁schickt	-13498
▁schrien	-13499
▁solchem	-13500
▁soldier	-13501
▁somehow	-13502
▁staying	-13503
▁stehend	-13504
▁stießen	-13505
▁superst	-13506
▁temples	-13507
▁thieves	-13508
▁timidly	-13509
▁torches	-13510
▁träumen	-13511
▁umarmte	-13512
▁umringt	-13513
▁unglaub	-13514
▁unrecht	-13515
▁verdrie	-13516
▁vernehm	-13517
▁verteid	-13518
▁vorigen	-13519
▁vornehm	-13520
▁whither	-13521
▁wodurch	-13522
▁zweifel	-13523
▁zögernd	-13524
▁älteren	-13525
▁äußerst	-13526
Certainly	-13527
Innocents	-13528
istischen	-13529
wechselnd	-13530
zusteigen	-13531
▁Arbeiten	-13532
▁Aufgaben	-13533
▁Ausnahme	-13534
▁Begriffe	-13535
▁Beihilfe	-13536
▁Bekannte	-13537
▁Betragen	-13538
▁Burschen	-13539
▁Châtelet	-13540
▁Dienerin	-13541
▁Direktor	-13542
▁Dormouse	-13543
▁Entgegen	-13544
▁Ewigkeit	-13545
▁Fenstern	-13546
▁Frühling	-13547
▁Geberden	-13548
▁Geländer	-13549
▁Genesung	-13550
▁Hausflur	-13551
▁Liénarde	-13552
▁Maschine	-13553
▁Pavlovna	-13554
▁Pawlowna	-13555
▁Peterhof	-13556
▁Petrowna	-13557
▁Pokrovsk	-13558
▁Rauschen	-13559
▁Saturday	-13560
▁Scheiben	-13561
▁Schläfen	-13562
▁Schwelle	-13563
▁Sonntags	-13564
▁Theodore	-13565
▁Torterue	-13566
▁Tänzerin	-13567
▁Unannehm	-13568
▁Versuche	-13569
▁Vlasevna	-13570
▁Welshman	-13571
▁Wärterin	-13572
▁allerlie	-13573
▁annehmen	-13574
▁anwesend	-13575
▁anziehen	-13576
▁befinden	-13577
▁begraben	-13578
▁benommen	-13579
▁bestowed	-13580
▁bewegten	-13581
▁breathed	-13582
▁composed	-13583
▁contents	-13584
▁contrast	-13585
▁covering	-13586
▁dazzling	-13587
▁declared	-13588
▁deserted	-13589
▁disagree	-13590
▁discoura	-13591
▁disliked	-13592
▁disorder	-13593
▁dragging	-13594
▁drinking	-13595
▁einladen	-13596
▁einzelne	-13597
▁envelope	-13598
▁erfolgte	-13599
▁erinnere	-13600
▁erschrak	-13601
▁ersparen	-13602
▁erwiesen	-13603
▁eternity	-13604
▁examined	-13605
▁expenses	-13606
▁faithful	-13607
▁frischen	-13608
▁fröhlich	-13609
▁gekränkt	-13610
▁gelingen	-13611
▁geschäft	-13612
▁gestehen	-13613
▁gestoßen	-13614
▁gestützt	-13615
▁geträumt	-13616
▁gewartet	-13617
▁gewendet	-13618
▁gewidmet	-13619
▁gewährte	-13620
▁gigantic	-13621
▁glorious	-13622
▁grateful	-13623
▁hastened	-13624
▁heftiger	-13625
▁hübscher	-13626
▁implored	-13627
▁inclined	-13628
▁infinite	-13629
▁informed	-13630
▁investig	-13631
▁jetzigen	-13632
▁kindness	-13633
▁kleidete	-13634
▁kläglich	-13635
▁könntest	-13636
▁lebendig	-13637
▁maintain	-13638
▁medicine	-13639
▁midnight	-13640
▁numerous	-13641
▁offering	-13642
▁oriental	-13643
▁patients	-13644
▁petition	-13645
▁property	-13646
▁recently	-13647
▁reizende	-13648
▁scheinen	-13649
▁screamed	-13650
▁signific	-13651
▁silently	-13652
▁situated	-13653
▁softened	-13654
▁spielten	-13655
▁stirring	-13656
▁strahlte	-13657
▁suitable	-13658
▁sunshine	-13659
▁teachers	-13660
▁trousers	-13661
▁twilight	-13662
▁ungeduld	-13663
▁unmittel	-13664
▁verlangt	-13665
▁verraten	-13666
▁verschmä	-13667
▁versetzt	-13668
▁verzweif	-13669
▁vexation	-13670
▁vierzehn	-13671
▁vigorous	-13672
▁violence	-13673
▁watering	-13674
▁weiteres	-13675
▁wherever	-13676
▁withdrew	-13677
▁zeitweil	-13678
geisterung	-13679
handlungen	-13680
hängigkeit	-13681
ländischen	-13682
richtungen	-13683
undvierzig	-13684
▁Besinnung	-13685
▁Einladung	-13686
▁Empfinden	-13687
▁Engländer	-13688
▁Franzosen	-13689
▁Fähigkeit	-13690
▁Georgiana	-13691
▁Horizonte	-13692
▁Nachricht	-13693
▁Prozesses	-13694
▁Scatcherd	-13695
▁Schmerzen	-13696
▁Schreiber	-13697
▁Schülerin	-13698
▁Seligkeit	-13699
▁Stockwerk	-13700
▁Sympathie	-13701
▁Tverskaya	-13702
▁Twerskaja	-13703
▁Venetians	-13704
▁Zuschauer	-13705
▁Zustandes	-13706
▁accompany	-13707
▁adventure	-13708
▁angelangt	-13709
▁animosity	-13710
▁aufgehört	-13711
▁begegnete	-13712
▁begleiten	-13713
▁behauptet	-13714
▁bestanden	-13715
▁caressing	-13716
▁carriages	-13717
▁committee	-13718
▁condemned	-13719
▁confessed	-13720
▁delighted	-13721
▁endgültig	-13722
▁engrossed	-13723
▁entangled	-13724
▁entfernen	-13725
▁enthalten	-13726
▁erfüllten	-13727
▁erloschen	-13728
▁erschöpft	-13729
▁erstenmal	-13730
▁exception	-13731
▁favourite	-13732
▁fifteenth	-13733
▁flüsternd	-13734
▁geringsch	-13735
▁geschieht	-13736
▁gewünscht	-13737
▁hölzernen	-13738
▁injustice	-13739
▁irritable	-13740
▁jedermann	-13741
▁lightning	-13742
▁mendicant	-13743
▁monuments	-13744
▁nachgeben	-13745
▁neighbors	-13746
▁neugierig	-13747
▁partition	-13748
▁permitted	-13749
▁recognize	-13750
▁religious	-13751
▁represent	-13752
▁richteten	-13753
▁römischen	-13754
▁sarcastic	-13755
▁schwacher	-13756
▁schwimmen	-13757
▁shuddered	-13758
▁strangely	-13759
▁struggled	-13760
▁suggested	-13761
▁supported	-13762
▁traveller	-13763
▁unbedingt	-13764
▁uncomfort	-13765
▁ungeheure	-13766
▁verbeugte	-13767
▁verborgen	-13768
▁verderben	-13769
▁verdorben	-13770
▁vermutete	-13771
▁vornehmen	-13772
▁waistcoat	-13773
▁äußersten	-13774
zweifelhaft	-13775
▁Angeklagte	-13776
▁Ausführung	-13777
▁Buchstaben	-13778
▁Diejenigen	-13779
▁Englishman	-13780
▁Entzückens	-13781
▁Ereignisse	-13782
▁Erkenntnis	-13783
▁Festigkeit	-13784
▁Government	-13785
▁Grundsätze	-13786
▁Hauptsache	-13787
▁Hausknecht	-13788
▁Jelisaweta	-13789
▁Kathedrale	-13790
▁Menschheit	-13791
▁Revolution	-13792
▁Schwägerin	-13793
▁Unbekannte	-13794
▁advantages	-13795
▁anderseits	-13796
▁angewiesen	-13797
▁auffallend	-13798
▁befriedigt	-13799
▁berichtete	-13800
▁colleagues	-13801
▁definitely	-13802
▁directions	-13803
▁disgusting	-13804
▁enthusiasm	-13805
▁entstanden	-13806
▁formidable	-13807
▁gewordenen	-13808
▁intentions	-13809
▁inzwischen	-13810
▁keineswegs	-13811
▁merkwürdig	-13812
▁personages	-13813
▁politeness	-13814
▁possession	-13815
▁procurator	-13816
▁protection	-13817
▁questioned	-13818
▁reasonable	-13819
▁resistance	-13820
▁underneath	-13821
▁verhindern	-13822
▁verkündete	-13823
▁vernichtet	-13824
▁verwandelt	-13825
▁wahnsinnig	-13826
▁wiederholt	-13827
▁zerbrochen	-13828
▁zitternder	-13829
▁zugebracht	-13830
▁Anordnungen	-13831
▁Entwicklung	-13832
▁Fabrikanten	-13833
▁Geschwornen	-13834
▁Grausamkeit	-13835
▁Höflichkeit	-13836
▁Murmelthier	-13837
▁Unterdessen	-13838
▁Unternehmen	-13839
▁Widerwillen	-13840
▁Wirtschafts	-13841
▁abwechselnd	-13842
▁aussprechen	-13843
▁bemächtigte	-13844
▁beunruhigte	-13845
▁complicated	-13846
▁distraction	-13847
▁dreihundert	-13848
▁examination	-13849
▁exclamation	-13850
▁fünfzehnten	-13851
▁gewöhnliche	-13852
▁hinausgehen	-13853
▁humiliation	-13854
▁illustrious	-13855
▁intelligent	-13856
▁kandidieren	-13857
▁remembering	-13858
▁represented	-13859
▁significant	-13860
▁tatsächlich	-13861
▁unangenehme	-13862
▁unbehaglich	-13863
▁vergleichen	-13864
▁verheiratet	-13865
▁verschaffen	-13866
▁verursachte	-13867
▁voneinander	-13868
▁vorbereitet	-13869
▁weggefahren	-13870
▁Anschauungen	-13871
▁Baudenkmäler	-13872
▁Befriedigung	-13873
▁Begeisterung	-13874
▁Dienerschaft	-13875
▁Enttäuschung	-13876
▁Gedankengang	-13877
▁Jahrhunderts	-13878
▁Liebkosungen	-13879
▁Petersburger	-13880
▁Rechenschaft	-13881
▁Rechtsanwalt	-13882
▁Stelldichein	-13883
▁Vergnügungen	-13884
▁aufgerichtet	-13885
▁circumstance	-13886
▁consequences	-13887
▁consequently	-13888
▁difficulties	-13889
▁hoffnungslos	-13890
▁neighbouring	-13891
▁occasionally	-13892
▁perspiration	-13893
▁recollection	-13894
▁stellenweise	-13895
▁unerträglich	-13896
▁Eigenschaften	-13897
▁Erscheinungen	-13898
▁Schnelligkeit	-13899
▁Unterbrechung	-13900
▁Viertelstunde	-13901
▁Vorstellungen	-13902
▁Zigeunerinnen	-13903
▁durcheinander	-13904
▁eingeschlafen	-13905
▁verschiedener	-13906
▁Anhänglichkeit	-13907
▁Barmherzigkeit	-13908
▁Persönlichkeit	-13909
▁eingeschlossen	-13910
▁geheimnisvolle	-13911
▁superintendent	-13912
'!	-13913
';	-13914
);	-13915
,‹	-13916
.:	-13917
.;	-13918
1,	-13919
8.	-13920
;'	-13921
AL	-13922
Ar	-13923
CK	-13924
EL	-13925
EV	-13926
GH	-13927
Hö	-13928
IV	-13929
LO	-13930
Me	-13931
OO	-13932
OU	-13933
Ob	-13934
Sp	-13935
bi	-13936
fu	-13937
go	-13938
kr	-13939
ku	-13940
tw	-13941
uv	-13942
«;	-13943
‹.	-13944
▁?	-13945
▁—	-13946
Bah	-13947
ENT	-13948
Hat	-13949
Hau	-13950
Imp	-13951
LLY	-13952
May	-13953
Sag	-13954
Wei	-13955
adr	-13956
alk	-13957
anl	-13958
aud	-13959
bad	-13960
bli	-13961
brä	-13962
cen	-13963
chn	-13964
cho	-13965
cip	-13966
ean	-13967
ffe	-13968
gly	-13969
gut	-13970
haw	-13971
ibt	-13972
ici	-13973
igz	-13974
ihr	-13975
iny	-13976
ios	-13977
ipt	-13978
ira	-13979
irs	-13980
ixt	-13981
jac	-13982
jed	-13983
kat	-13984
key	-13985
kre	-13986
kul	-13987
kür	-13988
loc	-13989
maß	-13990
meß	-13991
mig	-13992
nal	-13993
new	-13994
occ	-13995
oeu	-13996
oin	-13997
ola	-13998
onn	-13999
ote	-14000
oti	-14001
pla	-14002
pse	-14003
rav	-14004
raw	-14005
rou	-14006
rte	-14007
rät	-14008
udd	-14009
urg	-14010
vas	-14011
why	-14012
wol	-14013
wäl	-14014
zip	-14015
~!"	-14016
önt	-14017
▁4.	-14018
▁BY	-14019
▁II	-14020
▁Jä	-14021
▁Mä	-14022
▁NE	-14023
▁PR	-14024
▁Pu	-14025
▁RE	-14026
▁ST	-14027
▁VR	-14028
▁ca	-14029
▁hé	-14030
▁oh	-14031
▁pf	-14032
▁si	-14033
Auch	-14034
From	-14035
Frou	-14036
Gebt	-14037
Gene	-14038
Hold	-14039
Laßt	-14040
Lord	-14041
Love	-14042
Poor	-14043
Wahr	-14044
Weiß	-14045
Wozu	-14046
abor	-14047
afts	-14048
aire	-14049
alde	-14050
amma	-14051
anst	-14052
arch	-14053
arge	-14054
arry	-14055
atür	-14056
behr	-14057
bein	-14058
bere	-14059
beug	-14060
brid	-14061
cean	-14062
chor	-14063
ckel	-14064
cock	-14065
dere	-14066
dict	-14067
dued	-14068
elos	-14069
enen	-14070
etch	-14071
ewor	-14072
farb	-14073
fekt	-14074
feld	-14075
flog	-14076
foot	-14077
frem	-14078
gabe	-14079
gars	-14080
gger	-14081
gium	-14082
hast	-14083
held	-14084
hete	-14085
holt	-14086
holz	-14087
ibly	-14088
icin	-14089
icks	-14090
ickz	-14091
ieft	-14092
iegt	-14093
iker	-14094
inah	-14095
innt	-14096
inth	-14097
ippe	-14098
ique	-14099
irit	-14100
itär	-14101
kopf	-14102
kton	-14103
köpf	-14104
leun	-14105
lles	-14106
mein	-14107
mend	-14108
metz	-14109
mitt	-14110
nütz	-14111
odka	-14112
ogar	-14113
ohnt	-14114
olla	-14115
omed	-14116
only	-14117
orse	-14118
part	-14119
pent	-14120
pfer	-14121
phop	-14122
pred	-14123
quid	-14124
reht	-14125
rier	-14126
rise	-14127
räge	-14128
rück	-14129
saal	-14130
sely	-14131
sent	-14132
sitz	-14133
some	-14134
stoß	-14135
thed	-14136
thus	-14137
trag	-14138
uhen	-14139
uine	-14140
ulet	-14141
vent	-14142
verb	-14143
vorh	-14144
vory	-14145
well	-14146
your	-14147
zeih	-14148
zell	-14149
zeln	-14150
zuge	-14151
äden	-14152
ärke	-14153
èche	-14154
öhnt	-14155
ölbe	-14156
ürze	-14157
▁AND	-14158
▁ARE	-14159
▁Abt	-14160
▁Arg	-14161
▁Bib	-14162
▁Bor	-14163
▁Box	-14164
▁Cyr	-14165
▁Del	-14166
▁Det	-14167
▁Dra	-14168
▁Dro	-14169
▁Fal	-14170
▁Gab	-14171
▁Häß	-14172
▁Irr	-14173
▁Kus	-14174
▁Kuß	-14175
▁Lad	-14176
▁Lag	-14177
▁Mau	-14178
▁Oft	-14179
▁Pas	-14180
▁Pir	-14181
▁Ras	-14182
▁Stü	-14183
▁Süd	-14184
▁Tal	-14185
▁XIX	-14186
▁XVI	-14187
▁Zut	-14188
▁agr	-14189
▁ard	-14190
▁bag	-14191
▁cam	-14192
▁cel	-14193
▁dig	-14194
▁fag	-14195
▁fid	-14196
▁fog	-14197
▁fün	-14198
▁ham	-14199
▁hoo	-14200
▁hos	-14201
▁hut	-14202
▁höf	-14203
▁jew	-14204
▁les	-14205
▁loc	-14206
▁maß	-14207
▁mow	-14208
▁orn	-14209
▁pew	-14210
▁pig	-14211
▁rab	-14212
▁rap	-14213
▁rav	-14214
▁röt	-14215
▁vib	-14216
▁vul	-14217
?"--"	-14218
Danke	-14219
Leave	-14220
Stell	-14221
Weißt	-14222
acies	-14223
affte	-14224
after	-14225
agter	-14226
aille	-14227
amten	-14228
andah	-14229
andel	-14230
angle	-14231
apsed	-14232
ardly	-14233
armes	-14234
artre	-14235
assad	-14236
astro	-14237
atete	-14238
atzte	-14239
auner	-14240
ausen	-14241
austr	-14242
bonne	-14243
brows	-14244
buche	-14245
burst	-14246
cture	-14247
culty	-14248
dence	-14249
ehmen	-14250
eldet	-14251
eming	-14252
eness	-14253
erent	-14254
esque	-14255
estib	-14256
estic	-14257
falle	-14258
fangs	-14259
fende	-14260
flict	-14261
fälle	-14262
geber	-14263
gläub	-14264
hbank	-14265
hende	-14266
heres	-14267
hlung	-14268
holte	-14269
idden	-14270
ieger	-14271
ienne	-14272
indel	-14273
irium	-14274
isode	-14275
itted	-14276
jedow	-14277
kommt	-14278
laube	-14279
leien	-14280
linge	-14281
llied	-14282
losed	-14283
macht	-14284
mally	-14285
nicht	-14286
occup	-14287
odien	-14288
olaus	-14289
oleon	-14290
ollet	-14291
onner	-14292
orgia	-14293
orney	-14294
ouded	-14295
oveva	-14296
pagne	-14297
pense	-14298
perrt	-14299
piece	-14300
ppled	-14301
quest	-14302
ragte	-14303
rasch	-14304
raved	-14305
reihe	-14306
reuen	-14307
rizes	-14308
roten	-14309
ränge	-14310
samer	-14311
schuh	-14312
schuß	-14313
schüt	-14314
selig	-14315
smith	-14316
stoff	-14317
svoll	-14318
teous	-14319
thalb	-14320
uchhe	-14321
ucked	-14322
uling	-14323
unted	-14324
urfte	-14325
ußert	-14326
venge	-14327
viary	-14328
visor	-14329
viève	-14330
wande	-14331
werke	-14332
worte	-14333
worth	-14334
would	-14335
zucht	-14336
ährst	-14337
ärfer	-14338
ärmer	-14339
äumte	-14340
üfung	-14341
ühlte	-14342
▁Amts	-14343
▁Ande	-14344
▁Arzn	-14345
▁Asyl	-14346
▁Atel	-14347
▁Ausd	-14348
▁Baby	-14349
▁Bann	-14350
▁Blum	-14351
▁Bock	-14352
▁Bois	-14353
▁Buck	-14354
▁Buße	-14355
▁Chef	-14356
▁City	-14357
▁Cous	-14358
▁Dein	-14359
▁Dick	-14360
▁Each	-14361
▁Eier	-14362
▁Erwä	-14363
▁Fast	-14364
▁Graf	-14365
▁Gärt	-14366
▁Helm	-14367
▁Hind	-14368
▁Hute	-14369
▁Hühn	-14370
▁Jeff	-14371
▁Kahn	-14372
▁Kerl	-14373
▁Klee	-14374
▁Koch	-14375
▁Koff	-14376
▁Kont	-14377
▁Kreu	-14378
▁Laut	-14379
▁Like	-14380
▁Loch	-14381
▁Luke	-14382
▁Maus	-14383
▁Maße	-14384
▁Most	-14385
▁Muff	-14386
▁Noth	-14387
▁Papp	-14388
▁Prov	-14389
▁Sehr	-14390
▁Serv	-14391
▁Sieg	-14392
▁Sous	-14393
▁Stil	-14394
▁Take	-14395
▁Tany	-14396
▁Tats	-14397
▁Test	-14398
▁Turk	-14399
▁VIII	-14400
▁Vass	-14401
▁Very	-14402
▁Vogt	-14403
▁Wait	-14404
▁Weis	-14405
▁Weit	-14406
▁Wimp	-14407
▁Wuth	-14408
▁Zart	-14409
▁Zwöl	-14410
▁adul	-14411
▁amaz	-14412
▁angu	-14413
▁barn	-14414
▁bead	-14415
▁besp	-14416
▁blät	-14417
▁buzz	-14418
▁clam	-14419
▁clut	-14420
▁crit	-14421
▁demü	-14422
▁dess	-14423
▁dign	-14424
▁dine	-14425
▁ding	-14426
▁dogs	-14427
▁doll	-14428
▁dono	-14429
▁duke	-14430
▁duld	-14431
▁ejac	-14432
▁erer	-14433
▁erne	-14434
▁feur	-14435
▁fill	-14436
▁flow	-14437
▁fret	-14438
▁gekr	-14439
▁gent	-14440
▁gepr	-14441
▁gild	-14442
▁glow	-14443
▁grou	-14444
▁guid	-14445
▁gulf	-14446
▁hath	-14447
▁heit	-14448
▁herd	-14449
▁hilf	-14450
▁hint	-14451
▁idle	-14452
▁inse	-14453
▁insp	-14454
▁joys	-14455
▁knot	-14456
▁lame	-14457
▁laßt	-14458
▁leaf	-14459
▁lebl	-14460
▁legt	-14461
▁litt	-14462
▁load	-14463
▁loss	-14464
▁luck	-14465
▁lump	-14466
▁mare	-14467
▁moor	-14468
▁moss	-14469
▁musc	-14470
▁obsc	-14471
▁pear	-14472
▁pert	-14473
▁phen	-14474
▁pier	-14475
▁pink	-14476
▁pool	-14477
▁puzz	-14478
▁rags	-14479
▁rann	-14480
▁reco	-14481
▁ride	-14482
▁rieb	-14483
▁rock	-14484
▁rule	-14485
▁rück	-14486
▁seal	-14487
▁sitt	-14488
▁sols	-14489
▁spaß	-14490
▁sque	-14491
▁stim	-14492
▁stom	-14493
▁stub	-14494
▁subt	-14495
▁surm	-14496
▁tied	-14497
▁tipt	-14498
▁toll	-14499
▁type	-14500
▁valu	-14501
▁vult	-14502
▁wake	-14503
▁wart	-14504
▁wash	-14505
▁wont	-14506
▁wüth	-14507
▁zigz	-14508
▁älte	-14509
Jawohl	-14510
Michel	-14511
abinin	-14512
aneben	-14513
angten	-14514
anning	-14515
antime	-14516
ashing	-14517
assend	-14518
atives	-14519
barten	-14520
becile	-14521
ceress	-14522
ckigen	-14523
cribed	-14524
dachte	-14525
ddened	-14526
drückt	-14527
dunkel	-14528
ential	-14529
erklär	-14530
esselt	-14531
fachen	-14532
feless	-14533
fielen	-14534
findig	-14535
flügel	-14536
frauen	-14537
furcht	-14538
gangen	-14539
gerade	-14540
gesagt	-14541
geschn	-14542
gesprä	-14543
gewöhn	-14544
herein	-14545
holung	-14546
iertes	-14547
ifying	-14548
igehen	-14549
igfalt	-14550
ighten	-14551
inders	-14552
ingend	-14553
irrten	-14554
istent	-14555
iteten	-14556
klären	-14557
lauded	-14558
leiten	-14559
liness	-14560
locken	-14561
messer	-14562
neiden	-14563
ochten	-14564
offeln	-14565
oglyph	-14566
opodie	-14567
orgnis	-14568
oudois	-14569
ounces	-14570
ources	-14571
perren	-14572
platze	-14573
punkte	-14574
regeln	-14575
reihen	-14576
reitet	-14577
rephop	-14578
resses	-14579
rewell	-14580
räumen	-14581
schung	-14582
seless	-14583
skraft	-14584
strate	-14585
tented	-14586
traten	-14587
uation	-14588
uccess	-14589
uchtet	-14590
unkten	-14591
unting	-14592
urance	-14593
ursday	-14594
utters	-14595
vergnü	-14596
wander	-14597
washed	-14598
wasser	-14599
wissen	-14600
worden	-14601
zellan	-14602
zettel	-14603
äbchen	-14604
äusche	-14605
ürzung	-14606
üstert	-14607
▁About	-14608
▁Abtei	-14609
▁Acker	-14610
▁Adern	-14611
▁Aegyp	-14612
▁Alexe	-14613
▁Anton	-14614
▁Armee	-14615
▁Arzte	-14616
▁Asche	-14617
▁Atlas	-14618
▁Babel	-14619
▁Bande	-14620
▁Beist	-14621
▁Beste	-14622
▁Bezir	-14623
▁Blume	-14624
▁Blute	-14625
▁Bohem	-14626
▁Bravo	-14627
▁Brenn	-14628
▁Could	-14629
▁Dachr	-14630
▁Dafür	-14631
▁Darya	-14632
▁Dinah	-14633
▁Dorfe	-14634
▁Druck	-14635
▁Eiche	-14636
▁Eitel	-14637
▁Ellen	-14638
▁Enden	-14639
▁Euere	-14640
▁Exper	-14641
▁Farbe	-14642
▁Felde	-14643
▁Fermo	-14644
▁Freie	-14645
▁Gatte	-14646
▁Geste	-14647
▁Glase	-14648
▁Great	-14649
▁Haben	-14650
▁Haken	-14651
▁Halsk	-14652
▁Hauch	-14653
▁Hucky	-14654
▁Hurra	-14655
▁India	-14656
▁Instr	-14657
▁Janet	-14658
▁Jäger	-14659
▁Kehle	-14660
▁Kennt	-14661
▁Kiste	-14662
▁Kodex	-14663
▁Lange	-14664
▁Leder	-14665
▁Leide	-14666
▁Leuch	-14667
▁Linon	-14668
▁Marys	-14669
▁Mediz	-14670
▁Nonne	-14671
▁Oberk	-14672
▁Ortes	-14673
▁Pfarr	-14674
▁Platt	-14675
▁Schut	-14676
▁Since	-14677
▁Sogar	-14678
▁Sorge	-14679
▁Stall	-14680
▁Stick	-14681
▁Teile	-14682
▁Thier	-14683
▁Thron	-14684
▁Träum	-14685
▁Unser	-14686
▁Vaska	-14687
▁Wanze	-14688
▁Weihn	-14689
▁Wiege	-14690
▁Wogen	-14691
▁Wohin	-14692
▁Wunde	-14693
▁Zeige	-14694
▁Zickz	-14695
▁Zuver	-14696
▁Zwang	-14697
▁abges	-14698
▁admin	-14699
▁agony	-14700
▁alert	-14701
▁altar	-14702
▁anerk	-14703
▁anzuk	-14704
▁apple	-14705
▁apron	-14706
▁armed	-14707
▁attic	-14708
▁aufst	-14709
▁ausru	-14710
▁balls	-14711
▁banks	-14712
▁bedür	-14713
▁befre	-14714
▁befür	-14715
▁bench	-14716
▁benut	-14717
▁boxes	-14718
▁brand	-14719
▁braun	-14720
▁brisk	-14721
▁brood	-14722
▁cards	-14723
▁carts	-14724
▁chaos	-14725
▁clust	-14726
▁crack	-14727
▁crust	-14728
▁cryst	-14729
▁degra	-14730
▁demüt	-14731
▁depth	-14732
▁dined	-14733
▁disch	-14734
▁drift	-14735
▁equal	-14736
▁erreg	-14737
▁eröff	-14738
▁exalt	-14739
▁fatig	-14740
▁femin	-14741
▁fires	-14742
▁fleiß	-14743
▁flood	-14744
▁folds	-14745
▁folly	-14746
▁fount	-14747
▁funds	-14748
▁funny	-14749
▁gelie	-14750
▁gestr	-14751
▁gewei	-14752
▁ghost	-14753
▁ginge	-14754
▁glaub	-14755
▁guilt	-14756
▁gutem	-14757
▁haven	-14758
▁hints	-14759
▁hocht	-14760
▁hopes	-14761
▁hotel	-14762
▁ideal	-14763
▁ignor	-14764
▁incom	-14765
▁indis	-14766
▁indul	-14767
▁infer	-14768
▁inher	-14769
▁innig	-14770
▁ivory	-14771
▁kling	-14772
▁kunst	-14773
▁lacht	-14774
▁liest	-14775
▁likes	-14776
▁limit	-14777
▁linke	-14778
▁lords	-14779
▁lumin	-14780
▁marks	-14781
▁mason	-14782
▁medal	-14783
▁melod	-14784
▁merke	-14785
▁mittl	-14786
▁mixed	-14787
▁moist	-14788
▁mourn	-14789
▁nackt	-14790
▁naive	-14791
▁negle	-14792
▁newsp	-14793
▁novel	-14794
▁older	-14795
▁paler	-14796
▁petty	-14797
▁plaus	-14798
▁preis	-14799
▁prize	-14800
▁punct	-14801
▁repet	-14802
▁robes	-14803
▁sauce	-14804
▁schrä	-14805
▁schäd	-14806
▁schäm	-14807
▁scrut	-14808
▁shire	-14809
▁shops	-14810
▁silly	-14811
▁skull	-14812
▁slate	-14813
▁snuff	-14814
▁souls	-14815
▁stars	-14816
▁staub	-14817
▁stimm	-14818
▁stoop	-14819
▁strug	-14820
▁stump	-14821
▁stütz	-14822
▁surve	-14823
▁sweep	-14824
▁swore	-14825
▁theoc	-14826
▁thump	-14827
▁tones	-14828
▁tooth	-14829
▁treas	-14830
▁treat	-14831
▁tritt	-14832
▁trock	-14833
▁trost	-14834
▁trunk	-14835
▁turke	-14836
▁umhin	-14837
▁urged	-14838
▁valet	-14839
▁vicin	-14840
▁vivid	-14841
▁vodka	-14842
▁wehte	-14843
▁weich	-14844
▁wheel	-14845
▁womit	-14846
▁wuchs	-14847
▁wusch	-14848
▁zehnt	-14849
▁zuver	-14850
▁übler	-14851
artiger	-14852
assungs	-14853
asteten	-14854
athless	-14855
aufgang	-14856
bigkeit	-14857
bliothe	-14858
brunnen	-14859
endeten	-14860
ersteht	-14861
formity	-14862
gelehnt	-14863
gesicht	-14864
gestren	-14865
haftung	-14866
ideland	-14867
ienerin	-14868
igenden	-14869
ionable	-14870
kehrten	-14871
nehmend	-14872
otterte	-14873
pecting	-14874
pperten	-14875
rechnen	-14876
rechtes	-14877
sperson	-14878
stunden	-14879
tausend	-14880
tensity	-14881
vations	-14882
zurufen	-14883
ächtige	-14884
ätigung	-14885
ündigen	-14886
▁Anteil	-14887
▁Becher	-14888
▁Behind	-14889
▁Bergen	-14890
▁Bestre	-14891
▁Betten	-14892
▁Damals	-14893
▁Doctor	-14894
▁Ersatz	-14895
▁Fliege	-14896
▁Flinte	-14897
▁Flusse	-14898
▁Formen	-14899
▁Friday	-14900
▁Funken	-14901
▁Fällen	-14902
▁Geduld	-14903
▁Gegner	-14904
▁Geruch	-14905
▁Gewehr	-14906
▁Gästen	-14907
▁Handel	-14908
▁Heaven	-14909
▁Heimat	-14910
▁Heller	-14911
▁Hivert	-14912
▁Husten	-14913
▁Indien	-14914
▁Jahres	-14915
▁Kanzel	-14916
▁Karten	-14917
▁Katzen	-14918
▁Klagen	-14919
▁Kleide	-14920
▁Kosten	-14921
▁Kriege	-14922
▁Küssen	-14923
▁Lassen	-14924
▁Lestib	-14925
▁Lieber	-14926
▁Lieder	-14927
▁Linken	-14928
▁Little	-14929
▁Livres	-14930
▁Lukich	-14931
▁Lösung	-14932
▁Metrow	-14933
▁Möbeln	-14934
▁Nehmen	-14935
▁Neufch	-14936
▁Notars	-14937
▁Oliver	-14938
▁Partie	-14939
▁Parvis	-14940
▁Pilate	-14941
▁Pokrow	-14942
▁Quelle	-14943
▁Redens	-14944
▁Ringen	-14945
▁Ritter	-14946
▁Rollet	-14947
▁Sensen	-14948
▁Siegel	-14949
▁Sofort	-14950
▁Sprich	-14951
▁Spuren	-14952
▁Staats	-14953
▁Stehen	-14954
▁Stufen	-14955
▁Stuhle	-14956
▁Städte	-14957
▁Stärke	-14958
▁Surely	-14959
▁Sünder	-14960
▁Unsere	-14961
▁Veranl	-14962
▁Verhör	-14963
▁Vorhof	-14964
▁Warten	-14965
▁Weibes	-14966
▁Wickel	-14967
▁Wäsche	-14968
▁Zucker	-14969
▁Zurück	-14970
▁Zweige	-14971
▁abstra	-14972
▁accent	-14973
▁aching	-14974
▁achten	-14975
▁active	-14976
▁actors	-14977
▁admire	-14978
▁advise	-14979
▁affect	-14980
▁amount	-14981
▁angels	-14982
▁arisen	-14983
▁armies	-14984
▁assure	-14985
▁atmete	-14986
▁ausgem	-14987
▁beauft	-14988
▁beggar	-14989
▁begged	-14990
▁beißen	-14991
▁bietet	-14992
▁bigger	-14993
▁bridge	-14994
▁brutal	-14995
▁burden	-14996
▁bushes	-14997
▁causes	-14998
▁celebr	-14999
▁chapel	-15000
▁chased	-15001
▁choked	-15002
▁client	-15003
▁commen	-15004
▁conver	-15005
▁county	-15006
▁courty	-15007
▁dagger	-15008
▁davong	-15009
▁dearer	-15010
▁deckte	-15011
▁deeper	-15012
▁desert	-15013
▁detail	-15014
▁devour	-15015
▁dipped	-15016
▁dishes	-15017
▁drohte	-15018
▁durchs	-15019
▁einsch	-15020
▁elbows	-15021
▁ergötz	-15022
▁exists	-15023
▁favour	-15024
▁feebly	-15025
▁festen	-15026
▁fliegt	-15027
▁formal	-15028
▁fourth	-15029
▁freier	-15030
▁frozen	-15031
▁gaiety	-15032
▁geholt	-15033
▁gehöre	-15034
▁gibbet	-15035
▁girdle	-15036
▁gloves	-15037
▁gossip	-15038
▁govern	-15039
▁gravel	-15040
▁hanged	-15041
▁harten	-15042
▁haupts	-15043
▁hearth	-15044
▁heated	-15045
▁hiding	-15046
▁hinder	-15047
▁humble	-15048
▁injury	-15049
▁insist	-15050
▁invite	-15051
▁joints	-15052
▁joking	-15053
▁kalter	-15054
▁klaren	-15055
▁klugen	-15056
▁kosten	-15057
▁langte	-15058
▁lastly	-15059
▁lautem	-15060
▁leaned	-15061
▁leiten	-15062
▁lieder	-15063
▁lights	-15064
▁liquid	-15065
▁lively	-15066
▁livres	-15067
▁loaded	-15068
▁louder	-15069
▁manure	-15070
▁midday	-15071
▁monstr	-15072
▁mühsam	-15073
▁müßten	-15074
▁negoti	-15075
▁neigte	-15076
▁nights	-15077
▁oberen	-15078
▁ordnen	-15079
▁pained	-15080
▁paying	-15081
▁perman	-15082
▁pflegt	-15083
▁plenty	-15084
▁police	-15085
▁pracht	-15086
▁prayed	-15087
▁prüfte	-15088
▁pupils	-15089
▁reinen	-15090
▁reject	-15091
▁repent	-15092
▁reserv	-15093
▁riding	-15094
▁rollte	-15095
▁rubbed	-15096
▁ruhige	-15097
▁savage	-15098
▁schalt	-15099
▁screen	-15100
▁sealed	-15101
▁secure	-15102
▁seldom	-15103
▁senkte	-15104
▁shower	-15105
▁shriek	-15106
▁singer	-15107
▁skelet	-15108
▁sleepy	-15109
▁smoked	-15110
▁sports	-15111
▁strahl	-15112
▁submit	-15113
▁sullen	-15114
▁system	-15115
▁taller	-15116
▁tanzte	-15117
▁tasted	-15118
▁taught	-15119
▁temple	-15120
▁throat	-15121
▁trades	-15122
▁trampl	-15123
▁trifle	-15124
▁tumult	-15125
▁undist	-15126
▁unfehl	-15127
▁unlike	-15128
▁unterr	-15129
[...]
